#ifndef CREDIT_MODEL_H
#define CREDIT_MODEL_H

const unsigned int credit_model_dim1 = 4920;

const unsigned char credit_model[4920] = {
    0x1c, 0x00, 0x00, 0x00, 0x54, 0x46, 0x4c, 0x33, 0x14, 0x00, 0x20, 0x00, 
    0x04, 0x00, 0x08, 0x00, 0x0c, 0x00, 0x10, 0x00, 0x14, 0x00, 0x00, 0x00, 
    0x18, 0x00, 0x1c, 0x00, 0x14, 0x00, 0x00, 0x00, 0x03, 0x00, 0x00, 0x00, 
    0x18, 0x00, 0x00, 0x00, 0x20, 0x00, 0x00, 0x00, 0xb0, 0x00, 0x00, 0x00, 
    0x20, 0x00, 0x00, 0x00, 0x58, 0x00, 0x00, 0x00, 0x50, 0x00, 0x00, 0x00, 
    0x02, 0x00, 0x00, 0x00, 0x8c, 0x03, 0x00, 0x00, 0x70, 0x01, 0x00, 0x00, 
    0x01, 0x00, 0x00, 0x00, 0xb4, 0x00, 0x00, 0x00, 0x0d, 0x00, 0x00, 0x00, 
    0xe0, 0x12, 0x00, 0x00, 0xdc, 0x12, 0x00, 0x00, 0xc8, 0x11, 0x00, 0x00, 
    0x14, 0x11, 0x00, 0x00, 0xa4, 0x10, 0x00, 0x00, 0x14, 0x09, 0x00, 0x00, 
    0xc0, 0x04, 0x00, 0x00, 0xec, 0x03, 0x00, 0x00, 0xc0, 0x12, 0x00, 0x00, 
    0xbc, 0x12, 0x00, 0x00, 0xb8, 0x12, 0x00, 0x00, 0xb4, 0x12, 0x00, 0x00, 
    0x3c, 0x00, 0x00, 0x00, 0x00, 0x00, 0x00, 0x00, 0x01, 0x00, 0x00, 0x00, 
    0x0c, 0x00, 0x00, 0x00, 0x08, 0x00, 0x0c, 0x00, 0x04, 0x00, 0x08, 0x00, 
    0x08, 0x00, 0x00, 0x00, 0x08, 0x00, 0x00, 0x00, 0x0c, 0x00, 0x00, 0x00, 
    0x13, 0x00, 0x00, 0x00, 0x6d, 0x69, 0x6e, 0x5f, 0x72, 0x75, 0x6e, 0x74, 
    0x69, 0x6d, 0x65, 0x5f, 0x76, 0x65, 0x72, 0x73, 0x69, 0x6f, 0x6e, 0x00, 
    0xa2, 0xee, 0xff, 0xff, 0x04, 0x00, 0x00, 0x00, 0x10, 0x00, 0x00, 0x00, 
    0x31, 0x2e, 0x35, 0x2e, 0x30, 0x00, 0x00, 0x00, 0x00, 0x00, 0x00, 0x00, 
    0x00, 0x00, 0x00, 0x00, 0x0f, 0x00, 0x00, 0x00, 0x4d, 0x4c, 0x49, 0x52, 
    0x20, 0x43, 0x6f, 0x6e, 0x76, 0x65, 0x72, 0x74, 0x65, 0x64, 0x2e, 0x00, 
    0x00, 0x00, 0x0e, 0x00, 0x18, 0x00, 0x04, 0x00, 0x08, 0x00, 0x0c, 0x00, 
    0x10, 0x00, 0x14, 0x00, 0x0e, 0x00, 0x00, 0x00, 0x14, 0x00, 0x00, 0x00, 
    0x40, 0x00, 0x00, 0x00, 0x44, 0x00, 0x00, 0x00, 0x48, 0x00, 0x00, 0x00, 
    0x58, 0x00, 0x00, 0x00, 0x0b, 0x00, 0x00, 0x00, 0xd0, 0x11, 0x00, 0x00, 
    0x60, 0x11, 0x00, 0x00, 0x9c, 0x10, 0x00, 0x00, 0xf4, 0x0f, 0x00, 0x00, 
    0x9c, 0x0f, 0x00, 0x00, 0x08, 0x08, 0x00, 0x00, 0xb4, 0x03, 0x00, 0x00, 
    0xa4, 0x02, 0x00, 0x00, 0xb0, 0x01, 0x00, 0x00, 0xf8, 0x00, 0x00, 0x00, 
    0x80, 0x00, 0x00, 0x00, 0x01, 0x00, 0x00, 0x00, 0x00, 0x00, 0x00, 0x00, 
    0x01, 0x00, 0x00, 0x00, 0x0a, 0x00, 0x00, 0x00, 0x04, 0x00, 0x00, 0x00, 
    0x28, 0x02, 0x00, 0x00, 0x58, 0x01, 0x00, 0x00, 0xa4, 0x00, 0x00, 0x00, 
    0x1c, 0x00, 0x00, 0x00, 0x04, 0x00, 0x00, 0x00, 0x6d, 0x61, 0x69, 0x6e, 
    0x00, 0x00, 0x0e, 0x00, 0x18, 0x00, 0x08, 0x00, 0x0c, 0x00, 0x10, 0x00, 
    0x07, 0x00, 0x14, 0x00, 0x0e, 0x00, 0x00, 0x00, 0x00, 0x00, 0x00, 0x09, 
    0x01, 0x00, 0x00, 0x00, 0x1c, 0x00, 0x00, 0x00, 0x10, 0x00, 0x00, 0x00, 
    0x04, 0x00, 0x00, 0x00, 0x7e, 0xef, 0xff, 0xff, 0x00, 0x00, 0x80, 0x3f, 
    0x01, 0x00, 0x00, 0x00, 0x0a, 0x00, 0x00, 0x00, 0x01, 0x00, 0x00, 0x00, 
    0x09, 0x00, 0x00, 0x00, 0xf4, 0xfd, 0xff, 0xff, 0x19, 0x00, 0x00, 0x00, 
    0x00, 0x00, 0x00, 0x19, 0x01, 0x00, 0x00, 0x00, 0xec, 0xee, 0xff, 0xff, 
    0x14, 0x00, 0x00, 0x00, 0x0b, 0x00, 0x00, 0x00, 0x24, 0x00, 0x00, 0x00, 
    0x30, 0x00, 0x00, 0x00, 0x10, 0x00, 0x00, 0x00, 0x02, 0x00, 0x00, 0x00, 
    0x01, 0x00, 0x00, 0x00, 0x02, 0x00, 0x00, 0x00, 0x02, 0x00, 0x00, 0x00, 
    0xff, 0xff, 0xff, 0xff, 0x02, 0x00, 0x00, 0x00, 0x08, 0x00, 0x00, 0x00, 
    0x49, 0x64, 0x65, 0x6e, 0x74, 0x69, 0x74, 0x79, 0x00, 0x00, 0x00, 0x00, 
    0xd4, 0xee, 0xff, 0xff, 0x5e, 0xff, 0xff, 0xff, 0x00, 0x00, 0x00, 0x08, 
    0x18, 0x00, 0x00, 0x00, 0x0c, 0x00, 0x00, 0x00, 0x04, 0x00, 0x00, 0x00, 
    0xec, 0xee, 0xff, 0xff, 0x01, 0x00, 0x00, 0x00, 0x09, 0x00, 0x00, 0x00, 
    0x03, 0x00, 0x00, 0x00, 0x08, 0x00, 0x00, 0x00, 0x06, 0x00, 0x00, 0x00, 
    0x03, 0x00, 0x00, 0x00, 0x60, 0xef, 0xff, 0xff, 0x14, 0x00, 0x00, 0x00, 
    0x0a, 0x00, 0x00, 0x00, 0x24, 0x00, 0x00, 0x00, 0x5c, 0x00, 0x00, 0x00, 
    0x10, 0x00, 0x00, 0x00, 0x02, 0x00, 0x00, 0x00, 0x01, 0x00, 0x00, 0x00, 
    0x02, 0x00, 0x00, 0x00, 0x02, 0x00, 0x00, 0x00, 0xff, 0xff, 0xff, 0xff, 
    0x02, 0x00, 0x00, 0x00, 0x34, 0x00, 0x00, 0x00, 0x73, 0x65, 0x71, 0x75, 
    0x65, 0x6e, 0x74, 0x69, 0x61, 0x6c, 0x2f, 0x64, 0x65, 0x6e, 0x73, 0x65, 
    0x5f, 0x32, 0x2f, 0x4d, 0x61, 0x74, 0x4d, 0x75, 0x6c, 0x3b, 0x73, 0x65, 
    0x71, 0x75, 0x65, 0x6e, 0x74, 0x69, 0x61, 0x6c, 0x2f, 0x64, 0x65, 0x6e, 
    0x73, 0x65, 0x5f, 0x32, 0x2f, 0x42, 0x69, 0x61, 0x73, 0x41, 0x64, 0x64, 
    0x00, 0x00, 0x00, 0x00, 0x90, 0xf0, 0xff, 0xff, 0x00, 0x00, 0x0e, 0x00, 
    0x14, 0x00, 0x00, 0x00, 0x08, 0x00, 0x0c, 0x00, 0x07, 0x00, 0x10, 0x00, 
    0x0e, 0x00, 0x00, 0x00, 0x00, 0x00, 0x00, 0x08, 0x1c, 0x00, 0x00, 0x00, 
    0x10, 0x00, 0x00, 0x00, 0x04, 0x00, 0x00, 0x00, 0x32, 0xff, 0xff, 0xff, 
    0x00, 0x00, 0x00, 0x01, 0x01, 0x00, 0x00, 0x00, 0x08, 0x00, 0x00, 0x00, 
    0x03, 0x00, 0x00, 0x00, 0x07, 0x00, 0x00, 0x00, 0x05, 0x00, 0x00, 0x00, 
    0x02, 0x00, 0x00, 0x00, 0x14, 0xf0, 0xff, 0xff, 0x14, 0x00, 0x00, 0x00, 
    0x09, 0x00, 0x00, 0x00, 0x24, 0x00, 0x00, 0x00, 0x74, 0x00, 0x00, 0x00, 
    0x10, 0x00, 0x00, 0x00, 0x02, 0x00, 0x00, 0x00, 0x01, 0x00, 0x00, 0x00, 
    0x10, 0x00, 0x00, 0x00, 0x02, 0x00, 0x00, 0x00, 0xff, 0xff, 0xff, 0xff, 
    0x10, 0x00, 0x00, 0x00, 0x4c, 0x00, 0x00, 0x00, 0x73, 0x65, 0x71, 0x75, 
    0x65, 0x6e, 0x74, 0x69, 0x61, 0x6c, 0x2f, 0x64, 0x65, 0x6e, 0x73, 0x65, 
    0x5f, 0x31, 0x2f, 0x4d, 0x61, 0x74, 0x4d, 0x75, 0x6c, 0x3b, 0x73, 0x65, 
    0x71, 0x75, 0x65, 0x6e, 0x74, 0x69, 0x61, 0x6c, 0x2f, 0x64, 0x65, 0x6e, 
    0x73, 0x65, 0x5f, 0x31, 0x2f, 0x52, 0x65, 0x6c, 0x75, 0x3b, 0x73, 0x65, 
    0x71, 0x75, 0x65, 0x6e, 0x74, 0x69, 0x61, 0x6c, 0x2f, 0x64, 0x65, 0x6e, 
    0x73, 0x65, 0x5f, 0x31, 0x2f, 0x42, 0x69, 0x61, 0x73, 0x41, 0x64, 0x64, 
    0x00, 0x00, 0x00, 0x00, 0x5c, 0xf1, 0xff, 0xff, 0x00, 0x00, 0x0e, 0x00, 
    0x16, 0x00, 0x00, 0x00, 0x08, 0x00, 0x0c, 0x00, 0x07, 0x00, 0x10, 0x00, 
    0x0e, 0x00, 0x00, 0x00, 0x00, 0x00, 0x00, 0x08, 0x24, 0x00, 0x00, 0x00, 
    0x18, 0x00, 0x00, 0x00, 0x0c, 0x00, 0x00, 0x00, 0x00, 0x00, 0x06, 0x00, 
    0x08, 0x00, 0x07, 0x00, 0x06, 0x00, 0x00, 0x00, 0x00, 0x00, 0x00, 0x01, 
    0x01, 0x00, 0x00, 0x00, 0x07, 0x00, 0x00, 0x00, 0x03, 0x00, 0x00, 0x00, 
    0x00, 0x00, 0x00, 0x00, 0x04, 0x00, 0x00, 0x00, 0x01, 0x00, 0x00, 0x00, 
    0x0c, 0x00, 0x10, 0x00, 0x0b, 0x00, 0x00, 0x00, 0x0c, 0x00, 0x04, 0x00, 
    0x0c, 0x00, 0x00, 0x00, 0x09, 0x00, 0x00, 0x00, 0x00, 0x00, 0x00, 0x09, 
    0x01, 0x00, 0x00, 0x00, 0x04, 0xf1, 0xff, 0xff, 0x14, 0x00, 0x00, 0x00, 
    0x08, 0x00, 0x00, 0x00, 0x24, 0x00, 0x00, 0x00, 0x6c, 0x00, 0x00, 0x00, 
    0x10, 0x00, 0x00, 0x00, 0x02, 0x00, 0x00, 0x00, 0x01, 0x00, 0x00, 0x00, 
    0x10, 0x00, 0x00, 0x00, 0x02, 0x00, 0x00, 0x00, 0xff, 0xff, 0xff, 0xff, 
    0x10, 0x00, 0x00, 0x00, 0x46, 0x00, 0x00, 0x00, 0x73, 0x65, 0x71, 0x75, 
    0x65, 0x6e, 0x74, 0x69, 0x61, 0x6c, 0x2f, 0x64, 0x65, 0x6e, 0x73, 0x65, 
    0x2f, 0x4d, 0x61, 0x74, 0x4d, 0x75, 0x6c, 0x3b, 0x73, 0x65, 0x71, 0x75, 
    0x65, 0x6e, 0x74, 0x69, 0x61, 0x6c, 0x2f, 0x64, 0x65, 0x6e, 0x73, 0x65, 
    0x2f, 0x52, 0x65, 0x6c, 0x75, 0x3b, 0x73, 0x65, 0x71, 0x75, 0x65, 0x6e, 
    0x74, 0x69, 0x61, 0x6c, 0x2f, 0x64, 0x65, 0x6e, 0x73, 0x65, 0x2f, 0x42, 
    0x69, 0x61, 0x73, 0x41, 0x64, 0x64, 0x00, 0x00, 0x28, 0xf1, 0xff, 0xff, 
    0x3e, 0xf2, 0xff, 0xff, 0x04, 0x00, 0x00, 0x00, 0x80, 0x00, 0x00, 0x00, 
    0x3d, 0xc3, 0x5c, 0xbf, 0x6b, 0x57, 0x4e, 0xbe, 0x48, 0xb1, 0x19, 0x3f, 
    0x34, 0xcd, 0x4b, 0x3d, 0xa0, 0xb2, 0x3f, 0xbf, 0xfb, 0xe3, 0xd6, 0x3e, 
    0xa0, 0x09, 0x3d, 0x3f, 0x3d, 0xb6, 0x00, 0x3f, 0xc2, 0xf0, 0x0b, 0x3e, 
    0x3c, 0xae, 0xfe, 0x3c, 0x80, 0xc4, 0xc8, 0x3d, 0xab, 0x6a, 0x4e, 0x3f, 
    0x44, 0xc1, 0x66, 0xbf, 0x58, 0x8c, 0xfa, 0x3e, 0x37, 0x04, 0x97, 0xbe, 
    0x1a, 0x26, 0x35, 0xbc, 0x61, 0xc3, 0x2d, 0x3e, 0x95, 0x57, 0xf2, 0x3e, 
    0x8f, 0x11, 0x15, 0xbf, 0x22, 0xe3, 0x00, 0xbf, 0x37, 0x5c, 0xb2, 0x3e, 
    0xd7, 0x81, 0x0a, 0xbe, 0x3e, 0xb8, 0x46, 0xbe, 0x90, 0x47, 0x40, 0xbf, 
    0xa8, 0xa4, 0xe3, 0x3e, 0xe6, 0x3d, 0x2e, 0xbf, 0xfc, 0x79, 0xbe, 0xbe, 
    0xa4, 0x03, 0xfd, 0xbd, 0xc7, 0x72, 0x97, 0x3f, 0x26, 0xd3, 0x63, 0xbd, 
    0xe7, 0x7c, 0xe6, 0x3e, 0x5f, 0x18, 0xff, 0x3e, 0x76, 0xf2, 0xff, 0xff, 
    0x10, 0x00, 0x00, 0x00, 0x07, 0x00, 0x00, 0x00, 0x14, 0x00, 0x00, 0x00, 
    0x30, 0x00, 0x00, 0x00, 0x02, 0x00, 0x00, 0x00, 0x02, 0x00, 0x00, 0x00, 
    0x10, 0x00, 0x00, 0x00, 0x19, 0x00, 0x00, 0x00, 0x73, 0x65, 0x71, 0x75, 
    0x65, 0x6e, 0x74, 0x69, 0x61, 0x6c, 0x2f, 0x64, 0x65, 0x6e, 0x73, 0x65, 
    0x5f, 0x32, 0x2f, 0x4d, 0x61, 0x74, 0x4d, 0x75, 0x6c, 0x00, 0x00, 0x00, 
    0xf8, 0xf1, 0xff, 0xff, 0x0e, 0xf3, 0xff, 0xff, 0x04, 0x00, 0x00, 0x00, 
    0x00, 0x04, 0x00, 0x00, 0xda, 0x7b, 0xc4, 0xbe, 0xdb, 0x24, 0xd1, 0x3e, 
    0x50, 0x51, 0x77, 0xbf, 0x6d, 0x67, 0x80, 0x3f, 0x81, 0x5a, 0x60, 0xbc, 
    0x24, 0x81, 0x4e, 0xbf, 0xb7, 0xc8, 0xa9, 0xbd, 0x91, 0x47, 0x89, 0xbf, 
    0x3a, 0x33, 0x3a, 0xbf, 0xae, 0x66, 0xaf, 0xbe, 0x85, 0x80, 0x4d, 0x3e, 
    0x32, 0xbc, 0x43, 0xbe, 0x52, 0x31, 0x33, 0x3f, 0x9c, 0x48, 0x53, 0xbf, 
    0x8a, 0xb3, 0x63, 0xbf, 0xf8, 0x06, 0x11, 0xbf, 0x2a, 0x1a, 0x30, 0xbf, 
    0xe4, 0x70, 0x09, 0x3f, 0x13, 0xcb, 0x4d, 0xbf, 0x68, 0xb9, 0x2c, 0x3f, 
    0x14, 0x4b, 0x22, 0x3e, 0x6a, 0x39, 0x10, 0xbf, 0x49, 0x2a, 0xe3, 0xbe, 
    0xb8, 0xdf, 0x1c, 0xbf, 0x0e, 0x89, 0x2a, 0xbf, 0x31, 0x6e, 0x4b, 0xbf, 
    0x22, 0x45, 0x06, 0xbe, 0x07, 0x3c, 0xcf, 0xbe, 0x5f, 0x34, 0xa4, 0x3e, 
    0xc7, 0x44, 0x57, 0xbf, 0xfd, 0x06, 0x59, 0xbf, 0x95, 0x91, 0x6a, 0xbf, 
    0x40, 0xa9, 0x02, 0x3e, 0xfd, 0x6c, 0xd9, 0x3e, 0x93, 0x9b, 0x12, 0x3f, 
    0x4c, 0x08, 0xe8, 0xbe, 0x66, 0xe4, 0x24, 0xbe, 0x06, 0xe3, 0x3d, 0x3f, 
    0xd7, 0x3b, 0xca, 0x3e, 0x2a, 0xcf, 0xb2, 0x3c, 0x9d, 0x98, 0xd4, 0x3e, 
    0x1c, 0xda, 0x30, 0x3f, 0x7c, 0xe4, 0x9a, 0x3e, 0x2d, 0x83, 0x8f, 0x3f, 
    0x20, 0xfd, 0xb5, 0xbe, 0xc0, 0x62, 0x61, 0x3d, 0x31, 0xa3, 0x05, 0x3e, 
    0x1a, 0xa1, 0x5d, 0x3e, 0xe1, 0x16, 0x30, 0x3e, 0x5e, 0x32, 0x9e, 0x3e, 
    0xb5, 0x83, 0x90, 0x3e, 0x66, 0x1a, 0xf3, 0x3d, 0xfd, 0x30, 0x58, 0xbd, 
    0x9c, 0xb4, 0x67, 0x3d, 0x49, 0xa0, 0x3e, 0x3f, 0x2b, 0xae, 0x7f, 0xbd, 
    0x4d, 0x97, 0x34, 0x3f, 0x54, 0x82, 0xb2, 0x3e, 0xdb, 0x77, 0xe9, 0xbe, 
    0x11, 0xf1, 0x8d, 0x3f, 0x17, 0x60, 0x60, 0x3e, 0x54, 0x06, 0xd9, 0x3d, 
    0x99, 0xaf, 0xd1, 0xbe, 0x79, 0xf9, 0xa2, 0xbd, 0x5e, 0x88, 0xea, 0xbe, 
    0x21, 0xc3, 0x3d, 0x3e, 0xca, 0xaa, 0xad, 0xbc, 0xb6, 0xdb, 0x04, 0x3f, 
    0xff, 0xcb, 0x54, 0x3d, 0x34, 0x19, 0x75, 0xbe, 0xcc, 0xc5, 0x04, 0xbf, 
    0xfa, 0x52, 0x90, 0xbf, 0x28, 0x42, 0x67, 0xbe, 0x45, 0xfd, 0x5b, 0xbd, 
    0xf6, 0xef, 0xe7, 0xbe, 0xb6, 0x47, 0x94, 0x3d, 0x1e, 0x31, 0x05, 0x3f, 
    0xd7, 0xc3, 0xa2, 0xbe, 0xbc, 0xd1, 0x15, 0xbf, 0x92, 0x29, 0x99, 0xbe, 
    0x29, 0x7b, 0x2e, 0x3f, 0x72, 0x0e, 0x38, 0x3f, 0x1b, 0x05, 0x4a, 0x3f, 
    0xb6, 0x75, 0x28, 0xbe, 0x82, 0xae, 0xa1, 0xbe, 0x23, 0xb2, 0x64, 0x3f, 
    0x7f, 0x0e, 0x50, 0x3e, 0xd8, 0x67, 0x1a, 0x3f, 0x76, 0x7a, 0x66, 0x3f, 
    0x43, 0x36, 0x36, 0x3f, 0x35, 0x45, 0x23, 0x3e, 0x38, 0xe4, 0xc0, 0x3f, 
    0x5d, 0xf5, 0x82, 0xbd, 0x4d, 0xd6, 0x59, 0x3f, 0x57, 0xca, 0xb8, 0x3e, 
    0x79, 0xa9, 0x30, 0x3f, 0x31, 0xc2, 0x38, 0x3f, 0xb5, 0xf3, 0xac, 0x3e, 
    0xef, 0x07, 0xca, 0x3e, 0xfc, 0x8b, 0x85, 0xbd, 0xe2, 0x03, 0x78, 0xbe, 
    0x18, 0x7d, 0xb6, 0x3e, 0x13, 0x5d, 0x7e, 0x3e, 0x52, 0xdd, 0xc7, 0x3d, 
    0xab, 0x39, 0xea, 0x3e, 0x26, 0x55, 0xa7, 0x3e, 0x91, 0xd3, 0x35, 0x3f, 
    0xc4, 0x98, 0xaa, 0x3f, 0x67, 0x32, 0xe0, 0xbe, 0x14, 0x7f, 0xd6, 0x3e, 
    0xdd, 0x27, 0xeb, 0x3e, 0x56, 0x20, 0x36, 0x3f, 0xbb, 0x2a, 0x4a, 0x3e, 
    0x7f, 0xea, 0x8e, 0x3e, 0x49, 0x58, 0xa4, 0x3e, 0x5f, 0x49, 0xe1, 0xbd, 
    0x2f, 0x9e, 0x67, 0xbe, 0xe3, 0xed, 0x7e, 0x3e, 0x59, 0x52, 0x3d, 0x3f, 
    0x99, 0x33, 0x2c, 0x3f, 0x0f, 0x80, 0xcf, 0x3e, 0xb3, 0xd5, 0x34, 0x3f, 
    0xd0, 0x60, 0x35, 0x3f, 0x4e, 0x40, 0x53, 0x3f, 0x61, 0x85, 0x9c, 0xbe, 
    0x71, 0x9c, 0xe2, 0x3e, 0xfc, 0xe6, 0x0e, 0x3e, 0x85, 0x03, 0x02, 0x3f, 
    0x00, 0xf3, 0xd9, 0xbe, 0xd4, 0x3d, 0xec, 0xbe, 0x4d, 0x8b, 0x9a, 0xbe, 
    0x1f, 0x24, 0xef, 0xbe, 0x7c, 0x27, 0xc9, 0xbe, 0x63, 0x7b, 0x95, 0xbc, 
    0xa7, 0x24, 0xca, 0xbe, 0xbe, 0xe1, 0x76, 0x3e, 0xf9, 0xa8, 0x90, 0x3d, 
    0x37, 0xda, 0x21, 0xbe, 0x6a, 0x1b, 0x58, 0x3e, 0x35, 0xa6, 0x4e, 0x3d, 
    0x21, 0x29, 0xea, 0xbe, 0x02, 0x7e, 0x8b, 0xbe, 0x84, 0xf5, 0xc8, 0xbd, 
    0xb0, 0x4d, 0x94, 0x3d, 0x24, 0xf4, 0x20, 0x3f, 0xcb, 0x4c, 0x58, 0x3f, 
    0x0f, 0xad, 0xa2, 0x3e, 0x20, 0x5f, 0x94, 0x3e, 0xc6, 0x73, 0x13, 0xbf, 
    0x42, 0x89, 0x38, 0x3f, 0xae, 0x9d, 0x2e, 0x3f, 0x60, 0xf4, 0x46, 0x3f, 
    0x69, 0x1b, 0x50, 0x3f, 0xee, 0x20, 0xb1, 0x3e, 0xa8, 0xd0, 0xaf, 0x3d, 
    0x65, 0x9f, 0xa5, 0x3f, 0x31, 0xa7, 0x14, 0xbf, 0x5a, 0x3e, 0x24, 0x3f, 
    0xe4, 0x73, 0x45, 0x3f, 0xb8, 0x1d, 0x2b, 0x3e, 0x54, 0xf7, 0x0c, 0x3f, 
    0x6f, 0x74, 0x06, 0x3f, 0x93, 0x8d, 0x1e, 0x3f, 0x2b, 0x85, 0x07, 0xbf, 
    0xc9, 0xec, 0x71, 0xbe, 0x00, 0xd2, 0x12, 0x3f, 0x31, 0x45, 0x36, 0x3e, 
    0x3a, 0x73, 0x13, 0x3f, 0x4c, 0xb7, 0x8c, 0x3e, 0xcd, 0xd7, 0x39, 0x3f, 
    0x9e, 0x41, 0x98, 0x3e, 0x5a, 0xc3, 0xa9, 0x3f, 0x97, 0xe3, 0xf1, 0xbe, 
    0xaf, 0x3c, 0x2d, 0x3f, 0xd7, 0x29, 0x24, 0xbe, 0xdd, 0x57, 0x75, 0xbc, 
    0xa3, 0x4d, 0xc1, 0x3d, 0x60, 0xbe, 0xfa, 0x3e, 0x50, 0x35, 0xea, 0x3d, 
    0xd8, 0xd4, 0x54, 0xbe, 0x99, 0xff, 0x04, 0xbe, 0x95, 0xa2, 0x3f, 0x3f, 
    0x31, 0xf6, 0xb2, 0x3e, 0xd7, 0x60, 0xe2, 0x3d, 0xe2, 0xde, 0x09, 0xbe, 
    0xe6, 0xeb, 0x02, 0x3f, 0x79, 0xed, 0x09, 0x3e, 0xbd, 0x82, 0x16, 0x3f, 
    0x9f, 0xf4, 0x5c, 0xbe, 0xc5, 0xd4, 0x3e, 0x3f, 0x6d, 0x9d, 0x92, 0x3c, 
    0xe9, 0xc0, 0xbd, 0x3e, 0xe0, 0x24, 0x29, 0xbf, 0xad, 0x3d, 0x8c, 0xbe, 
    0x5c, 0x22, 0x43, 0xbf, 0x69, 0xee, 0x65, 0x3f, 0x21, 0xa6, 0xfc, 0xbd, 
    0x57, 0xdf, 0xda, 0xbe, 0x76, 0xe6, 0x2b, 0xbf, 0x4a, 0x35, 0x3e, 0xbf, 
    0x05, 0xe5, 0xec, 0xbe, 0x0d, 0x99, 0x2a, 0xbf, 0x26, 0x4c, 0xa4, 0x3d, 
    0x28, 0x3a, 0x3b, 0xbe, 0x32, 0x7d, 0x9b, 0x3e, 0xa1, 0x4e, 0x62, 0xbf, 
    0x72, 0x33, 0x18, 0xbf, 0x5b, 0x85, 0x83, 0xbf, 0xdb, 0xd3, 0x61, 0x3e, 
    0x0a, 0x00, 0x3c, 0x3f, 0x00, 0xaf, 0x20, 0x3f, 0x3a, 0x4d, 0xe0, 0xbc, 
    0x95, 0xec, 0xa9, 0xbe, 0xdd, 0x4d, 0x44, 0x3f, 0x62, 0x72, 0xfd, 0x3e, 
    0x6b, 0x6a, 0xf7, 0x3e, 0xdf, 0xb8, 0x10, 0x3f, 0xe4, 0xc5, 0x30, 0x3f, 
    0x35, 0xff, 0x4a, 0x3f, 0x6e, 0xc4, 0x84, 0x3f, 0xa0, 0xf3, 0x95, 0x3d, 
    0xbe, 0x82, 0x2d, 0x3f, 0x28, 0xa6, 0x94, 0x3e, 0xab, 0x4a, 0xbd, 0x3b, 
    0x05, 0x0a, 0x54, 0xbe, 0x0c, 0x43, 0xcf, 0xbd, 0x13, 0xf1, 0x45, 0xbe, 
    0x68, 0xcc, 0x50, 0x3f, 0xbf, 0x9c, 0x06, 0x3e, 0x53, 0xb4, 0x35, 0xbf, 
    0x13, 0x13, 0x10, 0x3e, 0xd3, 0x83, 0x03, 0xbe, 0x20, 0x6b, 0x92, 0xbe, 
    0x93, 0xf3, 0x23, 0xbf, 0xd4, 0x5b, 0xcd, 0xbd, 0x04, 0xb7, 0xc1, 0xbe, 
    0xca, 0xa9, 0xf6, 0x3e, 0x97, 0xab, 0x34, 0xbf, 0x91, 0x74, 0x45, 0xbf, 
    0xd6, 0xe2, 0x4a, 0xbe, 0xf4, 0xf7, 0x67, 0x3d, 0x60, 0xd3, 0xe9, 0xbe, 
    0x23, 0x54, 0xaf, 0x3d, 0x46, 0x31, 0x3b, 0xbe, 0x97, 0x27, 0xbb, 0xbe, 
    0x1c, 0x8f, 0x3f, 0x3e, 0x95, 0x60, 0xc9, 0xbd, 0x39, 0xc4, 0x15, 0xbe, 
    0x6b, 0x50, 0xfe, 0xbe, 0x23, 0x12, 0x02, 0x3d, 0x21, 0xb7, 0xd8, 0xbc, 
    0xa8, 0xd8, 0x69, 0x3d, 0xa6, 0x62, 0x73, 0x3e, 0x2e, 0xfe, 0xdc, 0x3d, 
    0xb7, 0xd0, 0xfd, 0xbe, 0x91, 0x18, 0x5d, 0xbe, 0xc6, 0xf6, 0xff, 0xff, 
    0x10, 0x00, 0x00, 0x00, 0x06, 0x00, 0x00, 0x00, 0x14, 0x00, 0x00, 0x00, 
    0x30, 0x00, 0x00, 0x00, 0x02, 0x00, 0x00, 0x00, 0x10, 0x00, 0x00, 0x00, 
    0x10, 0x00, 0x00, 0x00, 0x19, 0x00, 0x00, 0x00, 0x73, 0x65, 0x71, 0x75, 
    0x65, 0x6e, 0x74, 0x69, 0x61, 0x6c, 0x2f, 0x64, 0x65, 0x6e, 0x73, 0x65, 
    0x5f, 0x31, 0x2f, 0x4d, 0x61, 0x74, 0x4d, 0x75, 0x6c, 0x00, 0x00, 0x00, 
    0x48, 0xf6, 0xff, 0xff, 0x5e, 0xf7, 0xff, 0xff, 0x04, 0x00, 0x00, 0x00, 
    0x40, 0x07, 0x00, 0x00, 0xf3, 0x1a, 0x6d, 0xbc, 0x2a, 0x9d, 0x83, 0x3d, 
    0xff, 0xbb, 0xfc, 0xbe, 0xe6, 0x26, 0x97, 0xbe, 0x77, 0x92, 0xb4, 0x3c, 
    0x91, 0x71, 0x07, 0x3f, 0xda, 0x4a, 0x89, 0x3e, 0x8f, 0xff, 0x68, 0xbe, 
    0x37, 0xee, 0x74, 0xbf, 0xb1, 0x68, 0xbb, 0x3e, 0x39, 0xc6, 0xb2, 0xbe, 
    0x47, 0xda, 0xa4, 0x3e, 0xe9, 0x0a, 0x1c, 0x3e, 0xa1, 0x86, 0x5b, 0x3e, 
    0x2e, 0xff, 0x0a, 0x3f, 0x64, 0xc4, 0x27, 0x3f, 0x6c, 0xe1, 0x1b, 0x3e, 
    0xd7, 0x1c, 0x01, 0x3f, 0x94, 0x83, 0xb8, 0xbe, 0xfc, 0x60, 0x98, 0x3e, 
    0xed, 0xa8, 0x00, 0x3e, 0xf3, 0x72, 0x95, 0xbd, 0x1f, 0x6e, 0x2a, 0x3e, 
    0xce, 0x28, 0x69, 0x3e, 0x2b, 0xc9, 0xf4, 0xbd, 0xbe, 0x27, 0xa5, 0x3e, 
    0xc7, 0x21, 0xfc, 0xbe, 0xbf, 0x02, 0x7f, 0xbd, 0xd2, 0x21, 0x93, 0x3f, 
    0x8c, 0xd2, 0x8b, 0xbe, 0x66, 0x67, 0xd0, 0x3e, 0xfb, 0xbb, 0x61, 0x3e, 
    0x3d, 0x8d, 0x51, 0xbf, 0x39, 0xa2, 0xc0, 0x3d, 0x78, 0x39, 0x71, 0x3f, 
    0x3b, 0x30, 0x20, 0x3f, 0xad, 0xd5, 0xfa, 0x3d, 0xcd, 0xc1, 0xbd, 0xbe, 
    0x31, 0x42, 0xeb, 0x3e, 0x73, 0x54, 0xaa, 0xbe, 0x89, 0xe9, 0x1a, 0x3f, 
    0x23, 0x6e, 0x22, 0x3f, 0xca, 0xb2, 0xe1, 0x3e, 0xb9, 0x18, 0x46, 0xbf, 
    0x09, 0x4e, 0x1e, 0x3f, 0x00, 0x1f, 0x60, 0x3f, 0x5b, 0x22, 0xfd, 0x3e, 
    0x64, 0x35, 0x19, 0x3e, 0x30, 0xb9, 0x98, 0x3e, 0xbc, 0xbd, 0x09, 0xbf, 
    0xd0, 0x15, 0x43, 0x3d, 0x20, 0xe8, 0x95, 0xbd, 0xfd, 0x49, 0x06, 0xbd, 
    0x53, 0x60, 0x48, 0xbe, 0xa8, 0x39, 0x5f, 0x3d, 0x14, 0x3a, 0x22, 0xbf, 
    0xde, 0x88, 0xe1, 0xbe, 0x0c, 0x7a, 0x4a, 0x3f, 0x20, 0xc5, 0x83, 0xbc, 
    0x49, 0x05, 0x1d, 0x3f, 0x32, 0x9a, 0x23, 0x3e, 0x76, 0x81, 0x8e, 0xbe, 
    0xc6, 0xe8, 0xbe, 0xbe, 0xdb, 0x26, 0x04, 0x3f, 0x4c, 0xc1, 0xa2, 0x3f, 
    0xe9, 0xfb, 0x34, 0x3e, 0x85, 0x6b, 0x3d, 0xbf, 0x45, 0x03, 0xac, 0x3e, 
    0x42, 0x06, 0x5f, 0xbe, 0xe1, 0xb8, 0x02, 0xbe, 0xad, 0xa6, 0xed, 0xbb, 
    0xb2, 0x7d, 0xde, 0x3e, 0x3e, 0xc4, 0x7b, 0x3e, 0x21, 0xbc, 0x1d, 0x3f, 
    0x36, 0xec, 0x2c, 0xbe, 0x8a, 0x0a, 0x3a, 0x3f, 0x19, 0xb8, 0x04, 0x3f, 
    0x63, 0xac, 0x2d, 0x3f, 0xe3, 0x21, 0x51, 0x3e, 0xeb, 0xf9, 0xcd, 0xbe, 
    0xba, 0x5d, 0x85, 0xbf, 0x4e, 0x73, 0x42, 0x3d, 0xc7, 0xf1, 0xa6, 0xbe, 
    0x56, 0x9e, 0x17, 0x3e, 0xf7, 0x7e, 0x3f, 0xbe, 0xc9, 0xa0, 0x51, 0xbf, 
    0x52, 0x97, 0x48, 0x3f, 0x73, 0xe2, 0xda, 0xbc, 0x02, 0xa8, 0x26, 0xbf, 
    0xdf, 0xa5, 0x2a, 0x3d, 0x5c, 0x7a, 0xb5, 0x3e, 0xe2, 0xcb, 0x0f, 0x3e, 
    0xb1, 0xf4, 0x22, 0x3f, 0xc0, 0x16, 0x58, 0xbf, 0xdc, 0xb7, 0xb3, 0xbf, 
    0x12, 0x9d, 0x00, 0xbf, 0xd9, 0x6e, 0x16, 0xbf, 0x25, 0x83, 0x74, 0x3e, 
    0x0b, 0x65, 0x86, 0x3e, 0xf8, 0x77, 0xc0, 0x3d, 0xf7, 0x1c, 0xe1, 0xbe, 
    0x04, 0x5f, 0xae, 0xbe, 0xfa, 0xc5, 0x9e, 0xbe, 0xd8, 0xeb, 0x56, 0x3e, 
    0x55, 0x18, 0xb3, 0xbc, 0xf3, 0x59, 0x28, 0xbc, 0xa4, 0x99, 0x5c, 0xbe, 
    0x44, 0x93, 0xc3, 0x3e, 0x7b, 0xba, 0xc1, 0x3e, 0xf4, 0x12, 0x82, 0xbe, 
    0xd3, 0x24, 0x12, 0x3c, 0x1f, 0xa4, 0x3c, 0xbf, 0xf5, 0xe0, 0x61, 0x3f, 
    0x33, 0x87, 0xf0, 0xbf, 0x3d, 0xde, 0xec, 0xbf, 0xe1, 0x8d, 0x39, 0x3f, 
    0x56, 0x7b, 0x1d, 0xbe, 0x33, 0x91, 0x16, 0x3c, 0x21, 0x26, 0x7c, 0xbe, 
    0xed, 0x6f, 0x02, 0x3f, 0x82, 0x17, 0x41, 0xbd, 0x1e, 0x1d, 0x69, 0xbd, 
    0x37, 0xe6, 0x08, 0xbf, 0x52, 0xcc, 0xfe, 0xbe, 0x5f, 0xbf, 0xf0, 0xbe, 
    0x76, 0xce, 0xe8, 0xbe, 0x5f, 0x18, 0x69, 0x3e, 0x01, 0x94, 0x41, 0x3e, 
    0x06, 0xbe, 0xc5, 0xbe, 0x15, 0x88, 0x68, 0x3e, 0x83, 0x1e, 0x16, 0x3f, 
    0x6f, 0xbd, 0x22, 0xbe, 0xd7, 0x1d, 0xb6, 0xbe, 0x78, 0x53, 0x95, 0xbe, 
    0x69, 0xbe, 0x61, 0xbd, 0xff, 0xdf, 0x12, 0xbe, 0x9a, 0x31, 0x09, 0xbe, 
    0x2c, 0xec, 0xda, 0x3e, 0xef, 0x3e, 0x91, 0xbe, 0xc4, 0xa3, 0x5b, 0x3e, 
    0x46, 0x64, 0xb4, 0xbe, 0x77, 0x39, 0x1d, 0x3e, 0x98, 0xaf, 0x03, 0xbf, 
    0x1d, 0x82, 0xb8, 0xbe, 0x98, 0x91, 0x64, 0xbe, 0x57, 0x03, 0x84, 0xbe, 
    0xd2, 0x1c, 0x34, 0x3e, 0x36, 0xed, 0x14, 0x3f, 0xae, 0x2f, 0x80, 0xbf, 
    0x94, 0x64, 0x3a, 0x3e, 0x6d, 0x17, 0x39, 0x3f, 0x3e, 0x32, 0x0f, 0x3f, 
    0x3a, 0xd9, 0xdf, 0x3e, 0x45, 0xe0, 0x86, 0x3e, 0xe7, 0x0b, 0x38, 0x3f, 
    0x8c, 0x8a, 0x77, 0xbe, 0x50, 0x5f, 0xfb, 0x3e, 0x44, 0x6f, 0x82, 0x3e, 
    0x20, 0x4e, 0x0e, 0x3f, 0x16, 0x31, 0x59, 0xbf, 0x81, 0x85, 0x91, 0xbd, 
    0xcd, 0x51, 0xfa, 0x3e, 0x28, 0x97, 0x8b, 0xbe, 0xe5, 0xbf, 0x22, 0xbf, 
    0xbb, 0x0a, 0x9f, 0x3e, 0xa4, 0x5b, 0xd4, 0xbe, 0x35, 0x96, 0xc7, 0x3d, 
    0x45, 0x15, 0xea, 0x3d, 0xa9, 0xd4, 0x6b, 0xbe, 0x8a, 0x89, 0x79, 0x3e, 
    0xd1, 0xa4, 0xb2, 0x3d, 0x41, 0x56, 0xad, 0xbe, 0x50, 0x87, 0xba, 0xbe, 
    0x9b, 0x84, 0x0b, 0x3f, 0xdc, 0x76, 0x17, 0xbe, 0x09, 0xc9, 0x46, 0xbe, 
    0x24, 0x22, 0x1b, 0x3e, 0x9b, 0x73, 0xaa, 0xbe, 0x19, 0x48, 0x50, 0xbe, 
    0xd7, 0x10, 0x68, 0x3f, 0x5c, 0x16, 0x36, 0x3f, 0xe8, 0xc0, 0x7f, 0xbc, 
    0x4f, 0x15, 0x05, 0x3f, 0x65, 0x87, 0x82, 0x3f, 0xe3, 0x23, 0x60, 0xbf, 
    0xcb, 0xd3, 0x30, 0x3f, 0x44, 0x0d, 0x2c, 0x3a, 0x04, 0x65, 0xa0, 0x3d, 
    0x9a, 0xdc, 0xbd, 0xbe, 0x3a, 0xa1, 0x0c, 0x3f, 0xda, 0x33, 0xf7, 0x3e, 
    0x3a, 0x09, 0x50, 0xbf, 0xbc, 0x9f, 0xbb, 0xbe, 0x29, 0x24, 0x23, 0x3f, 
    0x93, 0x12, 0x40, 0x3c, 0x57, 0x3e, 0xbf, 0xbe, 0x54, 0xe8, 0xad, 0x3e, 
    0x0c, 0x56, 0x86, 0x3e, 0xeb, 0x72, 0x0e, 0x3f, 0x6e, 0x80, 0x5e, 0x3e, 
    0x55, 0x0e, 0xcb, 0xbe, 0xa7, 0x06, 0xa4, 0xbd, 0xa8, 0x30, 0x9f, 0x3f, 
    0xfe, 0x09, 0xc8, 0x3c, 0xb4, 0x6f, 0x69, 0x3f, 0x35, 0xf3, 0xcc, 0x3d, 
    0xd8, 0x00, 0xda, 0xbe, 0xe5, 0x4b, 0x4c, 0x3f, 0x50, 0xfd, 0x52, 0x3f, 
    0x98, 0x4b, 0x29, 0x3f, 0x27, 0x39, 0xf3, 0x3e, 0xdd, 0x98, 0x1e, 0xbe, 
    0x31, 0x6e, 0xb3, 0x3e, 0x41, 0xf6, 0xd9, 0x3d, 0xd9, 0x8a, 0x55, 0x3c, 
    0x62, 0x95, 0x52, 0x3e, 0xcc, 0x89, 0x36, 0x3f, 0x0f, 0xcf, 0x62, 0xbd, 
    0x9f, 0xde, 0xde, 0x3e, 0x15, 0xf6, 0x61, 0xbe, 0x1a, 0xaf, 0xb2, 0x3d, 
    0x65, 0x29, 0x5e, 0xbd, 0x94, 0x99, 0x59, 0x3b, 0x0e, 0x13, 0x20, 0xbe, 
    0x5f, 0x12, 0x15, 0xbe, 0xa7, 0xa8, 0x14, 0xbe, 0xf7, 0x11, 0xdf, 0xbd, 
    0x01, 0xe0, 0xf9, 0xbd, 0x71, 0x2d, 0xc8, 0x3e, 0xb2, 0x1d, 0x33, 0xbf, 
    0xdf, 0xe0, 0xd3, 0x3c, 0xb2, 0x60, 0x27, 0xbd, 0x89, 0x82, 0x1f, 0x3f, 
    0x97, 0xcc, 0xf2, 0xbe, 0x2d, 0x4f, 0x71, 0xbe, 0x00, 0x7e, 0x0b, 0xbf, 
    0x07, 0xd2, 0x3a, 0x3e, 0xdd, 0xb8, 0x94, 0xbe, 0xaf, 0xad, 0x0f, 0x3f, 
    0x02, 0x64, 0x08, 0xbe, 0x4b, 0xb0, 0x21, 0xbe, 0x27, 0x5f, 0x89, 0x3e, 
    0xe4, 0x2e, 0x92, 0x3c, 0xfa, 0xaa, 0x19, 0x3d, 0xbe, 0x96, 0xba, 0xbe, 
    0x1e, 0x53, 0xa2, 0x3d, 0x11, 0xb5, 0xde, 0x3e, 0x47, 0xfd, 0x58, 0x3e, 
    0xc6, 0xe4, 0xc3, 0x3c, 0x07, 0x1e, 0xfe, 0xbc, 0x5f, 0x8a, 0xc2, 0xbe, 
    0x99, 0x0c, 0xa4, 0x3e, 0xf0, 0x9e, 0xc1, 0xbc, 0x8e, 0x53, 0x98, 0x3e, 
    0xab, 0xe9, 0xca, 0x3e, 0x85, 0x80, 0xa5, 0x3d, 0xde, 0x68, 0xe0, 0xbe, 
    0x62, 0x35, 0x13, 0x3e, 0xeb, 0xd4, 0x20, 0xbf, 0x84, 0x39, 0x8a, 0xbf, 
    0xcb, 0x15, 0xb3, 0x3f, 0x32, 0x41, 0x6b, 0x3d, 0x16, 0xb8, 0x81, 0xbe, 
    0x91, 0x0e, 0xb5, 0xbe, 0x5c, 0x91, 0x59, 0xbf, 0x25, 0x7e, 0x47, 0xbd, 
    0x7a, 0x95, 0x08, 0xbe, 0x82, 0x4c, 0xe6, 0x3e, 0x20, 0x5c, 0xfb, 0x3e, 
    0xfb, 0x90, 0xd6, 0x3d, 0x4f, 0x80, 0x53, 0xbe, 0x89, 0x46, 0x1f, 0x3e, 
    0x6d, 0x73, 0x20, 0x3f, 0x8a, 0x1a, 0xaf, 0xbd, 0x37, 0xfd, 0x18, 0x3f, 
    0xed, 0x84, 0x4e, 0x3e, 0x8f, 0xd5, 0xe5, 0xbe, 0xe1, 0x89, 0xad, 0x3d, 
    0xcc, 0x29, 0x9d, 0xbd, 0x66, 0xd8, 0x81, 0x3c, 0x0d, 0x29, 0xb4, 0x3e, 
    0x84, 0xcf, 0x86, 0x3e, 0xdb, 0x31, 0xa7, 0xbe, 0xbf, 0xbb, 0x3e, 0xbf, 
    0x83, 0x11, 0x58, 0xbe, 0x65, 0xa2, 0x16, 0xbf, 0xc6, 0x9e, 0x9b, 0xbe, 
    0x1c, 0x19, 0xc0, 0xbe, 0x09, 0x37, 0x4f, 0xbf, 0xef, 0xd1, 0xe5, 0x3e, 
    0xb8, 0x2f, 0x3d, 0xbc, 0x00, 0xbf, 0x11, 0x3f, 0x75, 0x4a, 0x84, 0xbe, 
    0xcd, 0x73, 0x7b, 0xbf, 0xcc, 0xa7, 0x81, 0x3f, 0xc8, 0x60, 0x50, 0x3e, 
    0x4e, 0xcb, 0x08, 0x3f, 0x59, 0x03, 0x4d, 0x3f, 0x36, 0x23, 0x0a, 0xbf, 
    0x72, 0x51, 0x50, 0x3f, 0x86, 0x09, 0x25, 0xbe, 0x50, 0x16, 0xee, 0x3b, 
    0x79, 0x91, 0x3c, 0x3e, 0x9d, 0x9d, 0x4a, 0xbd, 0xb8, 0x61, 0xe4, 0x3e, 
    0x64, 0xa7, 0x16, 0x3f, 0xc0, 0xda, 0x06, 0x3f, 0x5a, 0xbe, 0xfe, 0x3e, 
    0xd1, 0xf0, 0x0e, 0x3d, 0x33, 0xc2, 0x98, 0x3e, 0x86, 0x04, 0xbf, 0xbd, 
    0x86, 0xa2, 0xbf, 0xbd, 0x29, 0x5a, 0x35, 0xbf, 0x11, 0xae, 0x38, 0x3e, 
    0x0c, 0x62, 0x07, 0xbe, 0xe5, 0x20, 0xbd, 0x3e, 0x2d, 0x31, 0x28, 0xbf, 
    0x79, 0xfb, 0x11, 0xc0, 0xce, 0x64, 0x35, 0xbe, 0xd8, 0xe2, 0xf7, 0x3e, 
    0x6d, 0x84, 0xc0, 0xbe, 0xd2, 0x75, 0x41, 0x3f, 0xf0, 0x2d, 0x54, 0x3d, 
    0xc4, 0xd1, 0xea, 0xbe, 0x50, 0xfa, 0xa9, 0x3e, 0x74, 0xc4, 0x4a, 0xbd, 
    0x2d, 0x45, 0x8e, 0xbc, 0x54, 0x2b, 0x49, 0x3d, 0xf0, 0x39, 0x95, 0x3f, 
    0x65, 0x4e, 0xbb, 0xbe, 0x7a, 0xce, 0x9b, 0xbe, 0xf9, 0xc5, 0x16, 0xbf, 
    0x75, 0x2e, 0x0f, 0x3e, 0x56, 0xd2, 0x8b, 0xbd, 0x1b, 0x6c, 0xc9, 0x3e, 
    0xed, 0x41, 0x1a, 0xbe, 0xf7, 0x06, 0x1b, 0xbf, 0xe2, 0x42, 0x9b, 0x3e, 
    0x43, 0x11, 0xa4, 0x3e, 0x1a, 0xb7, 0x31, 0x3f, 0xa1, 0x3e, 0x06, 0xbf, 
    0x6c, 0x0d, 0xd6, 0xbe, 0x79, 0x6a, 0x9a, 0x3e, 0x74, 0x52, 0x04, 0xbf, 
    0xd0, 0x2c, 0x8f, 0xbe, 0xb4, 0xf6, 0x97, 0xbe, 0x82, 0x0f, 0xc7, 0xbd, 
    0xd1, 0x3a, 0x4a, 0x3f, 0x79, 0xf7, 0x18, 0x3d, 0xd0, 0x85, 0xca, 0xbd, 
    0x22, 0xca, 0xfd, 0x3e, 0x92, 0xca, 0x17, 0x3e, 0x84, 0xc8, 0xa8, 0x3d, 
    0xcd, 0x0e, 0xac, 0x3d, 0x54, 0xf5, 0x60, 0xbf, 0x85, 0x45, 0xa9, 0x3e, 
    0x42, 0x95, 0xb3, 0x3d, 0x0a, 0x5c, 0x11, 0xbf, 0xb9, 0xfe, 0x3d, 0x3e, 
    0x7b, 0x17, 0x33, 0xbe, 0x92, 0x1a, 0x80, 0xbe, 0x33, 0xbe, 0xf8, 0xbe, 
    0x67, 0xac, 0xdf, 0xbe, 0x9f, 0xd8, 0x29, 0x3e, 0x72, 0x20, 0xc6, 0x3e, 
    0x0c, 0xf5, 0x90, 0x3d, 0x07, 0xc4, 0xf7, 0xbe, 0x24, 0xb2, 0x3d, 0xbf, 
    0xfe, 0xf8, 0x5b, 0x3e, 0x2b, 0x1a, 0x14, 0xbf, 0xbb, 0x11, 0x62, 0xbf, 
    0xc0, 0x5c, 0x68, 0x3e, 0x72, 0xae, 0xde, 0x3e, 0xe1, 0x68, 0x1f, 0x3c, 
    0xef, 0x4d, 0x84, 0x3e, 0x39, 0xf2, 0x8d, 0x3f, 0x6d, 0x91, 0xd8, 0xbf, 
    0xc5, 0xfa, 0x42, 0x3e, 0xb5, 0x28, 0xe8, 0x3e, 0x56, 0x3e, 0x4c, 0xbd, 
    0x00, 0x59, 0x99, 0xbf, 0x6d, 0x64, 0x26, 0x3f, 0xe3, 0x22, 0x09, 0xbf, 
    0x33, 0x8e, 0x01, 0xbd, 0xb2, 0xac, 0xc9, 0x3d, 0x09, 0x26, 0x45, 0xbc, 
    0x94, 0x22, 0x88, 0xbd, 0xc7, 0x3b, 0xc8, 0xbe, 0x76, 0xee, 0x16, 0xbe, 
    0x5a, 0x97, 0x69, 0x3e, 0x43, 0x3b, 0x36, 0x3e, 0xa4, 0x77, 0x38, 0xbe, 
    0x53, 0xa3, 0x13, 0xbd, 0x59, 0xa1, 0xd5, 0x3d, 0x17, 0xad, 0x53, 0xbe, 
    0x59, 0xfa, 0x0c, 0xbe, 0xc6, 0xf5, 0x9f, 0x3e, 0xf9, 0x90, 0xad, 0x3e, 
    0x61, 0xed, 0xff, 0x3e, 0xc6, 0x18, 0x7b, 0xbf, 0xa8, 0xb3, 0x1a, 0x3f, 
    0x0f, 0x78, 0x03, 0x3e, 0x69, 0x20, 0x41, 0x3d, 0x57, 0x48, 0x06, 0xbf, 
    0x16, 0x7b, 0x2d, 0xbe, 0x35, 0xed, 0x83, 0x3c, 0x97, 0x9f, 0x31, 0x3d, 
    0xf9, 0xba, 0xe2, 0x3e, 0x4e, 0xbd, 0x52, 0xbe, 0xf6, 0x80, 0x9c, 0xbe, 
    0xc3, 0x06, 0xb8, 0xbd, 0x72, 0x1b, 0xcf, 0x3e, 0x2a, 0xf8, 0x9f, 0x3f, 
    0x5f, 0x37, 0xa4, 0x3d, 0xec, 0xe9, 0x02, 0xbf, 0x9d, 0x6e, 0x95, 0x3f, 
    0x42, 0xb9, 0x1e, 0x3d, 0x82, 0x15, 0xa2, 0x3e, 0xb0, 0x74, 0x20, 0x3e, 
    0x77, 0x8f, 0xc4, 0x3e, 0xf0, 0x19, 0x00, 0x3f, 0x8f, 0x5e, 0x1d, 0x3f, 
    0x6d, 0x8f, 0x87, 0x3b, 0x80, 0x79, 0x8e, 0x3e, 0xae, 0x49, 0x55, 0xbe, 
    0x0c, 0x5a, 0x10, 0x3f, 0x54, 0xae, 0x23, 0xbf, 0xee, 0x77, 0x95, 0xbd, 
    0x94, 0xf2, 0xb3, 0x3e, 0x5b, 0x29, 0x2e, 0xbf, 0xc4, 0x33, 0xc8, 0xbe, 
    0xd7, 0x2b, 0xe9, 0xbd, 0x3b, 0x69, 0x8f, 0xbe, 0x72, 0x5c, 0x8e, 0xbf, 
    0x63, 0x2b, 0x77, 0x3f, 0xec, 0x7d, 0x35, 0xbe, 0x57, 0x42, 0x28, 0x3e, 
    0x98, 0x51, 0xbb, 0x3e, 0x08, 0x22, 0x50, 0xbf, 0xf1, 0x28, 0x8e, 0x3c, 
    0x41, 0x69, 0x9a, 0x3e, 0x7f, 0xb1, 0x84, 0x3f, 0x5c, 0x1e, 0x4a, 0x3d, 
    0xfa, 0xd0, 0xfd, 0xbe, 0x7f, 0xa6, 0x36, 0x3f, 0xb0, 0xc4, 0xaf, 0x3e, 
    0x5d, 0x6a, 0xc2, 0xba, 0x3e, 0x62, 0x9b, 0x3e, 0x2f, 0xa3, 0xfb, 0x3e, 
    0x11, 0x47, 0x1f, 0x3f, 0x72, 0x55, 0x9b, 0x3e, 0xc9, 0xf9, 0x13, 0x3e, 
    0xfb, 0x67, 0xc6, 0x3e, 0x94, 0x74, 0x4c, 0x3e, 0x39, 0xb6, 0x1e, 0xbe, 
    0x21, 0xda, 0xd8, 0xbe, 0xc4, 0x42, 0x0a, 0x3f, 0x88, 0x3d, 0xb7, 0xbe, 
    0x5e, 0xd9, 0xd5, 0xbe, 0x35, 0xfa, 0x84, 0xbe, 0xe4, 0x84, 0x65, 0x3e, 
    0xcb, 0xda, 0x91, 0xbe, 0x2a, 0x2a, 0xd3, 0xbe, 0xc9, 0x87, 0x98, 0x3e, 
    0x56, 0xfe, 0xff, 0xff, 0x10, 0x00, 0x00, 0x00, 0x05, 0x00, 0x00, 0x00, 
    0x14, 0x00, 0x00, 0x00, 0x2c, 0x00, 0x00, 0x00, 0x02, 0x00, 0x00, 0x00, 
    0x10, 0x00, 0x00, 0x00, 0x1d, 0x00, 0x00, 0x00, 0x17, 0x00, 0x00, 0x00, 
    0x73, 0x65, 0x71, 0x75, 0x65, 0x6e, 0x74, 0x69, 0x61, 0x6c, 0x2f, 0x64, 
    0x65, 0x6e, 0x73, 0x65, 0x2f, 0x4d, 0x61, 0x74, 0x4d, 0x75, 0x6c, 0x00, 
    0xd4, 0xfd, 0xff, 0xff, 0xea, 0xfe, 0xff, 0xff, 0x04, 0x00, 0x00, 0x00, 
    0x08, 0x00, 0x00, 0x00, 0x29, 0x43, 0x78, 0x3d, 0x6b, 0x1d, 0x78, 0xbd, 
    0xaa, 0xfe, 0xff, 0xff, 0x10, 0x00, 0x00, 0x00, 0x04, 0x00, 0x00, 0x00, 
    0x10, 0x00, 0x00, 0x00, 0x44, 0x00, 0x00, 0x00, 0x01, 0x00, 0x00, 0x00, 
    0x02, 0x00, 0x00, 0x00, 0x32, 0x00, 0x00, 0x00, 0x73, 0x65, 0x71, 0x75, 
    0x65, 0x6e, 0x74, 0x69, 0x61, 0x6c, 0x2f, 0x64, 0x65, 0x6e, 0x73, 0x65, 
    0x5f, 0x32, 0x2f, 0x42, 0x69, 0x61, 0x73, 0x41, 0x64, 0x64, 0x2f, 0x52, 
    0x65, 0x61, 0x64, 0x56, 0x61, 0x72, 0x69, 0x61, 0x62, 0x6c, 0x65, 0x4f, 
    0x70, 0x2f, 0x72, 0x65, 0x73, 0x6f, 0x75, 0x72, 0x63, 0x65, 0x00, 0x00, 
    0x40, 0xfe, 0xff, 0xff, 0x56, 0xff, 0xff, 0xff, 0x04, 0x00, 0x00, 0x00, 
    0x40, 0x00, 0x00, 0x00, 0x67, 0x28, 0x89, 0xbb, 0x04, 0x19, 0x7b, 0x3e, 
    0xbf, 0x09, 0x31, 0x3b, 0x8a, 0x95, 0xcc, 0xbe, 0x89, 0x1e, 0x59, 0x3d, 
    0x0d, 0x6f, 0x01, 0x3e, 0x2b, 0x19, 0x0b, 0x3e, 0xef, 0x56, 0x16, 0x3e, 
    0xd6, 0x36, 0x28, 0xbe, 0x7d, 0x02, 0x87, 0x3d, 0xe1, 0xfb, 0x11, 0x3d, 
    0x1d, 0x0a, 0xe0, 0x3e, 0xb0, 0x56, 0x42, 0x3e, 0xe9, 0x36, 0x01, 0x3d, 
    0x2f, 0x72, 0x7d, 0x3d, 0x28, 0x40, 0x26, 0xbe, 0x4e, 0xff, 0xff, 0xff, 
    0x10, 0x00, 0x00, 0x00, 0x03, 0x00, 0x00, 0x00, 0x10, 0x00, 0x00, 0x00, 
    0x48, 0x00, 0x00, 0x00, 0x01, 0x00, 0x00, 0x00, 0x10, 0x00, 0x00, 0x00, 
    0x32, 0x00, 0x00, 0x00, 0x73, 0x65, 0x71, 0x75, 0x65, 0x6e, 0x74, 0x69, 
    0x61, 0x6c, 0x2f, 0x64, 0x65, 0x6e, 0x73, 0x65, 0x5f, 0x31, 0x2f, 0x42, 
    0x69, 0x61, 0x73, 0x41, 0x64, 0x64, 0x2f, 0x52, 0x65, 0x61, 0x64, 0x56, 
    0x61, 0x72, 0x69, 0x61, 0x62, 0x6c, 0x65, 0x4f, 0x70, 0x2f, 0x72, 0x65, 
    0x73, 0x6f, 0x75, 0x72, 0x63, 0x65, 0x00, 0x00, 0x04, 0x00, 0x06, 0x00, 
    0x04, 0x00, 0x00, 0x00, 0x00, 0x00, 0x06, 0x00, 0x08, 0x00, 0x04, 0x00, 
    0x06, 0x00, 0x00, 0x00, 0x04, 0x00, 0x00, 0x00, 0x40, 0x00, 0x00, 0x00, 
    0xd1, 0x70, 0xe1, 0xbc, 0x3f, 0xda, 0x87, 0x3d, 0x9e, 0x3b, 0x36, 0x3e, 
    0xad, 0x43, 0x92, 0x3e, 0xef, 0x15, 0x73, 0xbc, 0x09, 0x27, 0x99, 0x3e, 
    0x17, 0xfa, 0xe8, 0x3d, 0x08, 0x1d, 0xfe, 0x3e, 0xda, 0xa4, 0x18, 0xbe, 
    0xd1, 0x9e, 0xbd, 0x3e, 0xe2, 0xcd, 0x3f, 0x3e, 0x2b, 0xdb, 0xa0, 0x3d, 
    0xae, 0x0d, 0x2b, 0xbe, 0x3c, 0x90, 0xab, 0x3e, 0xb8, 0x04, 0x8a, 0x3e, 
    0x6a, 0xe6, 0xcb, 0x3e, 0x00, 0x00, 0x0e, 0x00, 0x14, 0x00, 0x04, 0x00, 
    0x00, 0x00, 0x08, 0x00, 0x0c, 0x00, 0x10, 0x00, 0x0e, 0x00, 0x00, 0x00, 
    0x10, 0x00, 0x00, 0x00, 0x02, 0x00, 0x00, 0x00, 0x10, 0x00, 0x00, 0x00, 
    0x44, 0x00, 0x00, 0x00, 0x01, 0x00, 0x00, 0x00, 0x10, 0x00, 0x00, 0x00, 
    0x30, 0x00, 0x00, 0x00, 0x73, 0x65, 0x71, 0x75, 0x65, 0x6e, 0x74, 0x69, 
    0x61, 0x6c, 0x2f, 0x64, 0x65, 0x6e, 0x73, 0x65, 0x2f, 0x42, 0x69, 0x61, 
    0x73, 0x41, 0x64, 0x64, 0x2f, 0x52, 0x65, 0x61, 0x64, 0x56, 0x61, 0x72, 
    0x69, 0x61, 0x62, 0x6c, 0x65, 0x4f, 0x70, 0x2f, 0x72, 0x65, 0x73, 0x6f, 
    0x75, 0x72, 0x63, 0x65, 0x00, 0x00, 0x00, 0x00, 0xa4, 0xff, 0xff, 0xff, 
    0x14, 0x00, 0x18, 0x00, 0x04, 0x00, 0x00, 0x00, 0x08, 0x00, 0x0c, 0x00, 
    0x10, 0x00, 0x00, 0x00, 0x00, 0x00, 0x14, 0x00, 0x14, 0x00, 0x00, 0x00, 
    0x14, 0x00, 0x00, 0x00, 0x01, 0x00, 0x00, 0x00, 0x24, 0x00, 0x00, 0x00, 
    0x30, 0x00, 0x00, 0x00, 0x10, 0x00, 0x00, 0x00, 0x02, 0x00, 0x00, 0x00, 
    0x01, 0x00, 0x00, 0x00, 0x1d, 0x00, 0x00, 0x00, 0x02, 0x00, 0x00, 0x00, 
    0xff, 0xff, 0xff, 0xff, 0x1d, 0x00, 0x00, 0x00, 0x0b, 0x00, 0x00, 0x00, 
    0x64, 0x65, 0x6e, 0x73, 0x65, 0x5f, 0x69, 0x6e, 0x70, 0x75, 0x74, 0x00, 
    0xfc, 0xff, 0xff, 0xff, 0x04, 0x00, 0x04, 0x00, 0x04, 0x00, 0x00, 0x00
};

#endif //CREDIT_MODEL_H