#ifndef NETWORK_MODEL_H
#define NETWORK_MODEL_H

const unsigned int network_model_dim1 = 5512;

const unsigned char network_model[5512] = {
    0x1c, 0x00, 0x00, 0x00, 0x54, 0x46, 0x4c, 0x33, 0x14, 0x00, 0x20, 0x00, 
    0x04, 0x00, 0x08, 0x00, 0x0c, 0x00, 0x10, 0x00, 0x14, 0x00, 0x00, 0x00, 
    0x18, 0x00, 0x1c, 0x00, 0x14, 0x00, 0x00, 0x00, 0x03, 0x00, 0x00, 0x00, 
    0x18, 0x00, 0x00, 0x00, 0x20, 0x00, 0x00, 0x00, 0xb0, 0x00, 0x00, 0x00, 
    0x20, 0x00, 0x00, 0x00, 0x58, 0x00, 0x00, 0x00, 0x50, 0x00, 0x00, 0x00, 
    0x02, 0x00, 0x00, 0x00, 0x8c, 0x03, 0x00, 0x00, 0x70, 0x01, 0x00, 0x00, 
    0x01, 0x00, 0x00, 0x00, 0xb4, 0x00, 0x00, 0x00, 0x0d, 0x00, 0x00, 0x00, 
    0x30, 0x15, 0x00, 0x00, 0x2c, 0x15, 0x00, 0x00, 0x14, 0x14, 0x00, 0x00, 
    0x60, 0x13, 0x00, 0x00, 0xf0, 0x12, 0x00, 0x00, 0x1c, 0x09, 0x00, 0x00, 
    0xc8, 0x04, 0x00, 0x00, 0xf4, 0x03, 0x00, 0x00, 0x10, 0x15, 0x00, 0x00, 
    0x0c, 0x15, 0x00, 0x00, 0x08, 0x15, 0x00, 0x00, 0x04, 0x15, 0x00, 0x00, 
    0x3c, 0x00, 0x00, 0x00, 0x00, 0x00, 0x00, 0x00, 0x01, 0x00, 0x00, 0x00, 
    0x0c, 0x00, 0x00, 0x00, 0x08, 0x00, 0x0c, 0x00, 0x04, 0x00, 0x08, 0x00, 
    0x08, 0x00, 0x00, 0x00, 0x08, 0x00, 0x00, 0x00, 0x0c, 0x00, 0x00, 0x00, 
    0x13, 0x00, 0x00, 0x00, 0x6d, 0x69, 0x6e, 0x5f, 0x72, 0x75, 0x6e, 0x74, 
    0x69, 0x6d, 0x65, 0x5f, 0x76, 0x65, 0x72, 0x73, 0x69, 0x6f, 0x6e, 0x00, 
    0x56, 0xec, 0xff, 0xff, 0x04, 0x00, 0x00, 0x00, 0x10, 0x00, 0x00, 0x00, 
    0x31, 0x2e, 0x35, 0x2e, 0x30, 0x00, 0x00, 0x00, 0x00, 0x00, 0x00, 0x00, 
    0x00, 0x00, 0x00, 0x00, 0x0f, 0x00, 0x00, 0x00, 0x4d, 0x4c, 0x49, 0x52, 
    0x20, 0x43, 0x6f, 0x6e, 0x76, 0x65, 0x72, 0x74, 0x65, 0x64, 0x2e, 0x00, 
    0x00, 0x00, 0x0e, 0x00, 0x18, 0x00, 0x04, 0x00, 0x08, 0x00, 0x0c, 0x00, 
    0x10, 0x00, 0x14, 0x00, 0x0e, 0x00, 0x00, 0x00, 0x14, 0x00, 0x00, 0x00, 
    0x40, 0x00, 0x00, 0x00, 0x44, 0x00, 0x00, 0x00, 0x48, 0x00, 0x00, 0x00, 
    0x58, 0x00, 0x00, 0x00, 0x0b, 0x00, 0x00, 0x00, 0x1c, 0x14, 0x00, 0x00, 
    0xac, 0x13, 0x00, 0x00, 0xe8, 0x12, 0x00, 0x00, 0x40, 0x12, 0x00, 0x00, 
    0xe4, 0x11, 0x00, 0x00, 0x10, 0x08, 0x00, 0x00, 0xbc, 0x03, 0x00, 0x00, 
    0xa4, 0x02, 0x00, 0x00, 0xb0, 0x01, 0x00, 0x00, 0xf8, 0x00, 0x00, 0x00, 
    0x80, 0x00, 0x00, 0x00, 0x01, 0x00, 0x00, 0x00, 0x00, 0x00, 0x00, 0x00, 
    0x01, 0x00, 0x00, 0x00, 0x0a, 0x00, 0x00, 0x00, 0x04, 0x00, 0x00, 0x00, 
    0x28, 0x02, 0x00, 0x00, 0x58, 0x01, 0x00, 0x00, 0xa4, 0x00, 0x00, 0x00, 
    0x1c, 0x00, 0x00, 0x00, 0x04, 0x00, 0x00, 0x00, 0x6d, 0x61, 0x69, 0x6e, 
    0x00, 0x00, 0x0e, 0x00, 0x18, 0x00, 0x08, 0x00, 0x0c, 0x00, 0x10, 0x00, 
    0x07, 0x00, 0x14, 0x00, 0x0e, 0x00, 0x00, 0x00, 0x00, 0x00, 0x00, 0x09, 
    0x01, 0x00, 0x00, 0x00, 0x1c, 0x00, 0x00, 0x00, 0x10, 0x00, 0x00, 0x00, 
    0x04, 0x00, 0x00, 0x00, 0x32, 0xed, 0xff, 0xff, 0x00, 0x00, 0x80, 0x3f, 
    0x01, 0x00, 0x00, 0x00, 0x0a, 0x00, 0x00, 0x00, 0x01, 0x00, 0x00, 0x00, 
    0x09, 0x00, 0x00, 0x00, 0xf4, 0xfd, 0xff, 0xff, 0x19, 0x00, 0x00, 0x00, 
    0x00, 0x00, 0x00, 0x19, 0x01, 0x00, 0x00, 0x00, 0xa0, 0xec, 0xff, 0xff, 
    0x14, 0x00, 0x00, 0x00, 0x0b, 0x00, 0x00, 0x00, 0x24, 0x00, 0x00, 0x00, 
    0x30, 0x00, 0x00, 0x00, 0x10, 0x00, 0x00, 0x00, 0x02, 0x00, 0x00, 0x00, 
    0x01, 0x00, 0x00, 0x00, 0x02, 0x00, 0x00, 0x00, 0x02, 0x00, 0x00, 0x00, 
    0xff, 0xff, 0xff, 0xff, 0x02, 0x00, 0x00, 0x00, 0x08, 0x00, 0x00, 0x00, 
    0x49, 0x64, 0x65, 0x6e, 0x74, 0x69, 0x74, 0x79, 0x00, 0x00, 0x00, 0x00, 
    0x84, 0xec, 0xff, 0xff, 0x5e, 0xff, 0xff, 0xff, 0x00, 0x00, 0x00, 0x08, 
    0x18, 0x00, 0x00, 0x00, 0x0c, 0x00, 0x00, 0x00, 0x04, 0x00, 0x00, 0x00, 
    0x9c, 0xec, 0xff, 0xff, 0x01, 0x00, 0x00, 0x00, 0x09, 0x00, 0x00, 0x00, 
    0x03, 0x00, 0x00, 0x00, 0x08, 0x00, 0x00, 0x00, 0x06, 0x00, 0x00, 0x00, 
    0x03, 0x00, 0x00, 0x00, 0x14, 0xed, 0xff, 0xff, 0x14, 0x00, 0x00, 0x00, 
    0x0a, 0x00, 0x00, 0x00, 0x24, 0x00, 0x00, 0x00, 0x5c, 0x00, 0x00, 0x00, 
    0x10, 0x00, 0x00, 0x00, 0x02, 0x00, 0x00, 0x00, 0x01, 0x00, 0x00, 0x00, 
    0x02, 0x00, 0x00, 0x00, 0x02, 0x00, 0x00, 0x00, 0xff, 0xff, 0xff, 0xff, 
    0x02, 0x00, 0x00, 0x00, 0x34, 0x00, 0x00, 0x00, 0x73, 0x65, 0x71, 0x75, 
    0x65, 0x6e, 0x74, 0x69, 0x61, 0x6c, 0x2f, 0x64, 0x65, 0x6e, 0x73, 0x65, 
    0x5f, 0x36, 0x2f, 0x4d, 0x61, 0x74, 0x4d, 0x75, 0x6c, 0x3b, 0x73, 0x65, 
    0x71, 0x75, 0x65, 0x6e, 0x74, 0x69, 0x61, 0x6c, 0x2f, 0x64, 0x65, 0x6e, 
    0x73, 0x65, 0x5f, 0x36, 0x2f, 0x42, 0x69, 0x61, 0x73, 0x41, 0x64, 0x64, 
    0x00, 0x00, 0x00, 0x00, 0x44, 0xee, 0xff, 0xff, 0x00, 0x00, 0x0e, 0x00, 
    0x14, 0x00, 0x00, 0x00, 0x08, 0x00, 0x0c, 0x00, 0x07, 0x00, 0x10, 0x00, 
    0x0e, 0x00, 0x00, 0x00, 0x00, 0x00, 0x00, 0x08, 0x1c, 0x00, 0x00, 0x00, 
    0x10, 0x00, 0x00, 0x00, 0x04, 0x00, 0x00, 0x00, 0x32, 0xff, 0xff, 0xff, 
    0x00, 0x00, 0x00, 0x01, 0x01, 0x00, 0x00, 0x00, 0x08, 0x00, 0x00, 0x00, 
    0x03, 0x00, 0x00, 0x00, 0x07, 0x00, 0x00, 0x00, 0x05, 0x00, 0x00, 0x00, 
    0x02, 0x00, 0x00, 0x00, 0xc8, 0xed, 0xff, 0xff, 0x14, 0x00, 0x00, 0x00, 
    0x09, 0x00, 0x00, 0x00, 0x24, 0x00, 0x00, 0x00, 0x74, 0x00, 0x00, 0x00, 
    0x10, 0x00, 0x00, 0x00, 0x02, 0x00, 0x00, 0x00, 0x01, 0x00, 0x00, 0x00, 
    0x10, 0x00, 0x00, 0x00, 0x02, 0x00, 0x00, 0x00, 0xff, 0xff, 0xff, 0xff, 
    0x10, 0x00, 0x00, 0x00, 0x4c, 0x00, 0x00, 0x00, 0x73, 0x65, 0x71, 0x75, 
    0x65, 0x6e, 0x74, 0x69, 0x61, 0x6c, 0x2f, 0x64, 0x65, 0x6e, 0x73, 0x65, 
    0x5f, 0x35, 0x2f, 0x4d, 0x61, 0x74, 0x4d, 0x75, 0x6c, 0x3b, 0x73, 0x65, 
    0x71, 0x75, 0x65, 0x6e, 0x74, 0x69, 0x61, 0x6c, 0x2f, 0x64, 0x65, 0x6e, 
    0x73, 0x65, 0x5f, 0x35, 0x2f, 0x52, 0x65, 0x6c, 0x75, 0x3b, 0x73, 0x65, 
    0x71, 0x75, 0x65, 0x6e, 0x74, 0x69, 0x61, 0x6c, 0x2f, 0x64, 0x65, 0x6e, 
    0x73, 0x65, 0x5f, 0x35, 0x2f, 0x42, 0x69, 0x61, 0x73, 0x41, 0x64, 0x64, 
    0x00, 0x00, 0x00, 0x00, 0x10, 0xef, 0xff, 0xff, 0x00, 0x00, 0x0e, 0x00, 
    0x16, 0x00, 0x00, 0x00, 0x08, 0x00, 0x0c, 0x00, 0x07, 0x00, 0x10, 0x00, 
    0x0e, 0x00, 0x00, 0x00, 0x00, 0x00, 0x00, 0x08, 0x24, 0x00, 0x00, 0x00, 
    0x18, 0x00, 0x00, 0x00, 0x0c, 0x00, 0x00, 0x00, 0x00, 0x00, 0x06, 0x00, 
    0x08, 0x00, 0x07, 0x00, 0x06, 0x00, 0x00, 0x00, 0x00, 0x00, 0x00, 0x01, 
    0x01, 0x00, 0x00, 0x00, 0x07, 0x00, 0x00, 0x00, 0x03, 0x00, 0x00, 0x00, 
    0x00, 0x00, 0x00, 0x00, 0x04, 0x00, 0x00, 0x00, 0x01, 0x00, 0x00, 0x00, 
    0x0c, 0x00, 0x10, 0x00, 0x0b, 0x00, 0x00, 0x00, 0x0c, 0x00, 0x04, 0x00, 
    0x0c, 0x00, 0x00, 0x00, 0x09, 0x00, 0x00, 0x00, 0x00, 0x00, 0x00, 0x09, 
    0x01, 0x00, 0x00, 0x00, 0xb8, 0xee, 0xff, 0xff, 0x14, 0x00, 0x00, 0x00, 
    0x08, 0x00, 0x00, 0x00, 0x24, 0x00, 0x00, 0x00, 0x74, 0x00, 0x00, 0x00, 
    0x10, 0x00, 0x00, 0x00, 0x02, 0x00, 0x00, 0x00, 0x01, 0x00, 0x00, 0x00, 
    0x10, 0x00, 0x00, 0x00, 0x02, 0x00, 0x00, 0x00, 0xff, 0xff, 0xff, 0xff, 
    0x10, 0x00, 0x00, 0x00, 0x4c, 0x00, 0x00, 0x00, 0x73, 0x65, 0x71, 0x75, 
    0x65, 0x6e, 0x74, 0x69, 0x61, 0x6c, 0x2f, 0x64, 0x65, 0x6e, 0x73, 0x65, 
    0x5f, 0x34, 0x2f, 0x4d, 0x61, 0x74, 0x4d, 0x75, 0x6c, 0x3b, 0x73, 0x65, 
    0x71, 0x75, 0x65, 0x6e, 0x74, 0x69, 0x61, 0x6c, 0x2f, 0x64, 0x65, 0x6e, 
    0x73, 0x65, 0x5f, 0x34, 0x2f, 0x52, 0x65, 0x6c, 0x75, 0x3b, 0x73, 0x65, 
    0x71, 0x75, 0x65, 0x6e, 0x74, 0x69, 0x61, 0x6c, 0x2f, 0x64, 0x65, 0x6e, 
    0x73, 0x65, 0x5f, 0x34, 0x2f, 0x42, 0x69, 0x61, 0x73, 0x41, 0x64, 0x64, 
    0x00, 0x00, 0x00, 0x00, 0xe0, 0xee, 0xff, 0xff, 0xfa, 0xef, 0xff, 0xff, 
    0x04, 0x00, 0x00, 0x00, 0x80, 0x00, 0x00, 0x00, 0xd1, 0xfe, 0x40, 0xbe, 
    0xbc, 0x22, 0x6a, 0x3e, 0x9b, 0x9b, 0x36, 0x3f, 0x64, 0xc5, 0x18, 0x3e, 
    0x85, 0x6e, 0xec, 0x3d, 0xf9, 0x49, 0x54, 0xbd, 0xb4, 0xf9, 0x92, 0xbd, 
    0x02, 0x22, 0x54, 0xbe, 0xde, 0xa2, 0x1e, 0x3f, 0xd5, 0x8e, 0xb9, 0x3d, 
    0x87, 0x70, 0x65, 0x3c, 0x02, 0x58, 0xe6, 0xbd, 0x48, 0x4b, 0xae, 0xbc, 
    0xad, 0x5a, 0x8f, 0xbd, 0x7a, 0x10, 0x1c, 0xbe, 0x2b, 0xb4, 0x95, 0x3e, 
    0x6b, 0xb8, 0x94, 0xbd, 0x0c, 0xcf, 0x34, 0x3d, 0x76, 0x53, 0xc2, 0xbc, 
    0x38, 0x8b, 0xb5, 0x3e, 0x01, 0x66, 0x09, 0x3e, 0x2a, 0x6f, 0x5d, 0x3e, 
    0x84, 0xfd, 0x09, 0x3d, 0x01, 0xd9, 0xa6, 0x3d, 0x65, 0xe9, 0xdd, 0xbe, 
    0x8f, 0x8b, 0x21, 0x3e, 0xeb, 0xa8, 0x8e, 0x3e, 0xc3, 0x33, 0x0a, 0x3e, 
    0x75, 0xc1, 0x56, 0xbf, 0x45, 0x20, 0x9f, 0xbe, 0xe6, 0xaf, 0xc5, 0xbe, 
    0xa5, 0x3a, 0x8a, 0xbe, 0x32, 0xf0, 0xff, 0xff, 0x10, 0x00, 0x00, 0x00, 
    0x07, 0x00, 0x00, 0x00, 0x14, 0x00, 0x00, 0x00, 0x30, 0x00, 0x00, 0x00, 
    0x02, 0x00, 0x00, 0x00, 0x02, 0x00, 0x00, 0x00, 0x10, 0x00, 0x00, 0x00, 
    0x19, 0x00, 0x00, 0x00, 0x73, 0x65, 0x71, 0x75, 0x65, 0x6e, 0x74, 0x69, 
    0x61, 0x6c, 0x2f, 0x64, 0x65, 0x6e, 0x73, 0x65, 0x5f, 0x36, 0x2f, 0x4d, 
    0x61, 0x74, 0x4d, 0x75, 0x6c, 0x00, 0x00, 0x00, 0xb0, 0xef, 0xff, 0xff, 
    0xca, 0xf0, 0xff, 0xff, 0x04, 0x00, 0x00, 0x00, 0x00, 0x04, 0x00, 0x00, 
    0x2b, 0x0c, 0x9d, 0xbb, 0x4e, 0x51, 0xc2, 0x3c, 0xdc, 0xc8, 0x57, 0xbe, 
    0x8b, 0x91, 0x28, 0x3c, 0xa8, 0x82, 0xd0, 0xbd, 0x8f, 0x5c, 0x06, 0xbe, 
    0x0e, 0x66, 0x1e, 0x3e, 0xfd, 0x85, 0xc9, 0x3d, 0xec, 0x4f, 0x47, 0x3e, 
    0x28, 0xb1, 0x86, 0xbe, 0xf3, 0xdd, 0xf3, 0x3d, 0x98, 0x25, 0xaa, 0xbe, 
    0x65, 0xe6, 0x2a, 0xbe, 0x77, 0xeb, 0xb4, 0x3e, 0x92, 0x79, 0x37, 0xbe, 
    0x81, 0x1e, 0xbd, 0x3e, 0x29, 0x24, 0xd9, 0xbd, 0x72, 0xc5, 0x0d, 0xbe, 
    0xa7, 0x43, 0xe8, 0xbc, 0x18, 0xed, 0x7c, 0xbe, 0x3e, 0xf6, 0xb6, 0x3e, 
    0x90, 0x11, 0x8c, 0x3d, 0xb8, 0x16, 0xa6, 0x3e, 0x40, 0xb0, 0x4d, 0xbe, 
    0xd9, 0x7c, 0x46, 0xbe, 0x70, 0x5a, 0xd3, 0x3e, 0xf7, 0x14, 0xaf, 0xbe, 
    0x20, 0x2f, 0xb8, 0xbd, 0x99, 0x95, 0x4a, 0xbe, 0x82, 0x0e, 0x50, 0x3e, 
    0x14, 0x61, 0x43, 0xbe, 0x0f, 0x8d, 0x51, 0x3e, 0x11, 0x9e, 0x02, 0x3f, 
    0xe1, 0x69, 0xb3, 0x3e, 0xb8, 0x7e, 0x26, 0x3e, 0xf5, 0xfc, 0xd1, 0x3e, 
    0x4e, 0x78, 0x86, 0x3e, 0x49, 0x5f, 0x4a, 0xbf, 0x3f, 0xeb, 0xa1, 0x3e, 
    0xdd, 0x9f, 0x38, 0x3e, 0x02, 0x10, 0x12, 0xbd, 0x6a, 0xd7, 0x06, 0x3e, 
    0x8b, 0x0c, 0xc0, 0x3e, 0x6e, 0xf2, 0x94, 0x3d, 0x93, 0xb8, 0xd0, 0x3e, 
    0x0b, 0xeb, 0x59, 0x3e, 0x9c, 0xbd, 0xa1, 0xbe, 0x78, 0x29, 0xe6, 0x3e, 
    0x89, 0xe9, 0x67, 0x3e, 0x02, 0xf1, 0x8f, 0x3e, 0xcd, 0xf8, 0x6b, 0x3e, 
    0xd5, 0xe0, 0xad, 0xbe, 0x1e, 0x64, 0xc5, 0x3b, 0x5f, 0x32, 0x13, 0x3f, 
    0xec, 0x41, 0xb3, 0x3e, 0xda, 0x58, 0xea, 0x3c, 0x5e, 0x51, 0x7e, 0xbe, 
    0x19, 0xe8, 0xa9, 0xbd, 0xb2, 0x69, 0xca, 0x3e, 0xd9, 0xdb, 0xca, 0xbe, 
    0x5a, 0x0a, 0x18, 0x3f, 0x9b, 0x6d, 0x1b, 0xbd, 0x57, 0xcc, 0xbe, 0x3e, 
    0x92, 0x4b, 0x84, 0x3e, 0xf6, 0x40, 0x7e, 0xbe, 0x7a, 0x59, 0xdb, 0x3c, 
    0x6b, 0x83, 0x50, 0x3c, 0x1e, 0xf7, 0x0a, 0xbd, 0x96, 0xf7, 0x80, 0xbe, 
    0x80, 0x52, 0x25, 0xbe, 0x7b, 0xd8, 0x96, 0x3e, 0xc0, 0x0b, 0xd9, 0xbe, 
    0x71, 0x10, 0xc9, 0xbe, 0xbf, 0x02, 0x9b, 0x3e, 0x02, 0xbf, 0xc6, 0xbe, 
    0x6e, 0x84, 0x9b, 0x3e, 0x8a, 0xfa, 0xd8, 0xbd, 0x42, 0xb2, 0x9f, 0xbe, 
    0xc4, 0x28, 0x7d, 0x3e, 0x68, 0x31, 0x9d, 0x3e, 0x99, 0xdb, 0x9c, 0xbd, 
    0x5e, 0x87, 0x49, 0x3e, 0x8e, 0x49, 0xc1, 0x3e, 0xf8, 0xc8, 0x0d, 0xbf, 
    0x3b, 0x1b, 0xcd, 0x3d, 0xca, 0x56, 0xe1, 0x3e, 0x1f, 0xb1, 0x2f, 0xbd, 
    0xe8, 0xe4, 0xe5, 0x3c, 0xe8, 0x69, 0x8b, 0xbd, 0xac, 0x7d, 0xe1, 0xbc, 
    0xd6, 0x91, 0xc2, 0xbe, 0x94, 0x70, 0x66, 0xbe, 0xd5, 0xab, 0xbf, 0x3e, 
    0xdc, 0x6a, 0x10, 0x3e, 0xb3, 0x39, 0x1f, 0x3e, 0x1b, 0x35, 0x8a, 0xbe, 
    0x73, 0xd5, 0xf5, 0xbc, 0xee, 0x83, 0x4f, 0x3e, 0x3d, 0x85, 0x1c, 0xbe, 
    0x16, 0x6a, 0x54, 0xbe, 0x42, 0x3c, 0xd3, 0xbe, 0x5b, 0x2a, 0xdc, 0x3e, 
    0x64, 0x44, 0x51, 0x3e, 0x7a, 0xb1, 0xdb, 0x3d, 0xc3, 0xdb, 0x8a, 0xbe, 
    0x18, 0x99, 0xb0, 0x3e, 0x47, 0x25, 0xf7, 0x3d, 0x73, 0x68, 0xad, 0xbe, 
    0xac, 0x7f, 0x23, 0xbe, 0x15, 0xa9, 0x29, 0x3e, 0x20, 0xe6, 0x02, 0xbe, 
    0xab, 0x33, 0xaf, 0x3d, 0x87, 0xca, 0x2a, 0x3d, 0xc5, 0xda, 0x98, 0xbe, 
    0xe8, 0x66, 0x81, 0x3a, 0xcd, 0x29, 0x92, 0xbe, 0xbe, 0xb3, 0x5d, 0xbe, 
    0x74, 0xea, 0xdb, 0xbd, 0x86, 0xd6, 0xb5, 0x3e, 0xc2, 0xf0, 0x2b, 0xbd, 
    0x90, 0x91, 0x98, 0x3e, 0x18, 0xb3, 0x98, 0x3d, 0x2f, 0xc7, 0x21, 0xbe, 
    0x5a, 0x12, 0xb2, 0x3e, 0x51, 0xfe, 0xf2, 0xbd, 0xc8, 0x2b, 0x10, 0xbe, 
    0xca, 0xbb, 0xb7, 0xbe, 0x77, 0x01, 0x5a, 0xbd, 0x6a, 0x05, 0x16, 0xbf, 
    0x80, 0xab, 0x02, 0x3f, 0xb2, 0x21, 0x12, 0x3e, 0x2c, 0x3b, 0x56, 0xbe, 
    0x57, 0xa5, 0xb6, 0xbe, 0xe4, 0x72, 0xfd, 0x3d, 0xb4, 0x32, 0x13, 0xbe, 
    0x46, 0x3e, 0xe8, 0xbd, 0x89, 0x18, 0xbf, 0xbe, 0x8d, 0x61, 0xbc, 0xbe, 
    0x01, 0x20, 0xbd, 0x3e, 0x7a, 0xcf, 0x86, 0x3e, 0x7b, 0xba, 0x20, 0xbf, 
    0xf5, 0x67, 0x45, 0x3e, 0xf6, 0x41, 0x60, 0x3e, 0x83, 0x3b, 0x94, 0xbe, 
    0xac, 0x22, 0xe1, 0xbd, 0x76, 0xad, 0x7e, 0x3e, 0x7d, 0xa9, 0xf0, 0xbe, 
    0x9c, 0xe8, 0xae, 0xbe, 0x57, 0x22, 0x6d, 0xbe, 0x1f, 0xb5, 0x38, 0xbe, 
    0x27, 0xb8, 0xeb, 0x3e, 0x23, 0x9f, 0x97, 0x3e, 0x2a, 0x70, 0x98, 0x3e, 
    0x5d, 0xff, 0xba, 0x3e, 0x44, 0x0b, 0x93, 0xbe, 0x22, 0xa1, 0xe6, 0x3e, 
    0x99, 0xb8, 0x12, 0x3f, 0x91, 0xb8, 0x23, 0xbd, 0x5b, 0x43, 0x0a, 0x3f, 
    0x3f, 0x64, 0x23, 0x3e, 0xf6, 0xa7, 0xa8, 0xbd, 0x18, 0x51, 0xe2, 0x3d, 
    0x12, 0xb5, 0xa1, 0x3e, 0x78, 0xb4, 0x2f, 0xbf, 0x58, 0x0e, 0x17, 0xbf, 
    0x72, 0x4c, 0x50, 0x3f, 0xd8, 0x99, 0xe8, 0x3e, 0x75, 0x29, 0x05, 0xbc, 
    0x21, 0xdc, 0xf9, 0x3e, 0x2f, 0xbb, 0xaa, 0x3e, 0x54, 0x70, 0x9b, 0x3e, 
    0x4e, 0xca, 0x82, 0x3d, 0x9e, 0xf9, 0x81, 0x3d, 0x73, 0xbd, 0x1f, 0xbe, 
    0x24, 0x0b, 0x0e, 0xbe, 0xea, 0x50, 0xef, 0x3e, 0x30, 0xcc, 0x8c, 0xbe, 
    0x7b, 0xda, 0x5c, 0x3e, 0x1c, 0x08, 0xc0, 0xbd, 0x59, 0xab, 0x38, 0xbe, 
    0xcb, 0xfb, 0x0d, 0xbe, 0xa4, 0x88, 0x48, 0xbe, 0x8d, 0x48, 0xfb, 0x3d, 
    0xba, 0xf4, 0x0d, 0xbf, 0xb8, 0xf7, 0x00, 0xbe, 0x87, 0xa1, 0x75, 0xbd, 
    0xe7, 0x4d, 0x39, 0xbe, 0x8e, 0x2b, 0xb2, 0xbe, 0xf3, 0x82, 0x06, 0x3c, 
    0x9b, 0x41, 0x0f, 0xbe, 0xbb, 0xcd, 0x4e, 0xbe, 0x24, 0xe2, 0x29, 0xbe, 
    0x32, 0x70, 0x9f, 0xbd, 0x8e, 0x4f, 0x96, 0x3e, 0xcc, 0xfa, 0x01, 0xbf, 
    0x64, 0x02, 0xce, 0x3e, 0xfc, 0xef, 0x48, 0x3f, 0xa6, 0xca, 0xa3, 0xbe, 
    0xa3, 0xc6, 0x30, 0xbe, 0xd9, 0x43, 0x00, 0xbf, 0x4d, 0x9a, 0x11, 0x3c, 
    0xcd, 0xd2, 0xea, 0xbe, 0xdb, 0xa0, 0x4b, 0xbd, 0xca, 0x21, 0xcd, 0x3b, 
    0x5d, 0x5e, 0x34, 0x3f, 0xf3, 0x58, 0xbe, 0xbd, 0x77, 0xae, 0xbb, 0x3e, 
    0x32, 0xf7, 0x2d, 0xbe, 0x42, 0x58, 0xa4, 0x3d, 0x0b, 0x54, 0x5f, 0x3e, 
    0x38, 0xdd, 0x40, 0xbf, 0x37, 0x95, 0x8e, 0x3e, 0x93, 0xf0, 0xe8, 0x3e, 
    0x76, 0xcd, 0x05, 0xbe, 0x59, 0xcd, 0x33, 0xbe, 0xfd, 0x54, 0xb8, 0xbe, 
    0x04, 0x21, 0xba, 0xbe, 0x4b, 0xf3, 0xa4, 0xbe, 0x8b, 0x48, 0xb6, 0x3d, 
    0x0b, 0xa9, 0x1b, 0x3e, 0x78, 0x3a, 0x03, 0x3e, 0x53, 0x5f, 0xfb, 0xbd, 
    0x8b, 0x12, 0xa5, 0xbe, 0x25, 0x7f, 0x99, 0x3e, 0x34, 0xe4, 0xff, 0xbd, 
    0xfd, 0xfb, 0x26, 0xbc, 0x22, 0xb1, 0xa2, 0xbd, 0x65, 0x97, 0x99, 0x3d, 
    0xf6, 0x55, 0xde, 0x3d, 0xee, 0x76, 0xba, 0xbe, 0xdf, 0xb9, 0xa5, 0x3e, 
    0x1d, 0x62, 0x3f, 0x3e, 0xa6, 0x42, 0xe4, 0xbe, 0xa4, 0xe8, 0x8b, 0xbe, 
    0x21, 0x84, 0x9f, 0xbe, 0x70, 0xda, 0x09, 0xbd, 0x02, 0xb5, 0x16, 0xbe, 
    0x97, 0x8b, 0x78, 0xbe, 0xe7, 0xdc, 0xc3, 0xbe, 0x72, 0x9a, 0x14, 0x3e, 
    0x88, 0x87, 0xf3, 0xbe, 0x4f, 0xaa, 0x45, 0xbe, 0xaa, 0xa9, 0x12, 0xbe, 
    0x09, 0xa6, 0xf0, 0xbe, 0xad, 0x74, 0xa6, 0x3d, 0xdf, 0xee, 0xc9, 0xbe, 
    0xcf, 0x25, 0xab, 0x3b, 0x15, 0xd1, 0xeb, 0x3e, 0x6d, 0xde, 0x94, 0xbd, 
    0xa5, 0x0a, 0x80, 0xbe, 0x46, 0xfe, 0x95, 0x3e, 0xf3, 0x52, 0x9c, 0xbd, 
    0xf7, 0xda, 0x00, 0xbf, 0xe5, 0x35, 0xf8, 0x3e, 0x80, 0x48, 0x13, 0xbf, 
    0x8c, 0x1d, 0xe1, 0xbe, 0x82, 0xf4, 0xff, 0xff, 0x10, 0x00, 0x00, 0x00, 
    0x06, 0x00, 0x00, 0x00, 0x14, 0x00, 0x00, 0x00, 0x30, 0x00, 0x00, 0x00, 
    0x02, 0x00, 0x00, 0x00, 0x10, 0x00, 0x00, 0x00, 0x10, 0x00, 0x00, 0x00, 
    0x19, 0x00, 0x00, 0x00, 0x73, 0x65, 0x71, 0x75, 0x65, 0x6e, 0x74, 0x69, 
    0x61, 0x6c, 0x2f, 0x64, 0x65, 0x6e, 0x73, 0x65, 0x5f, 0x35, 0x2f, 0x4d, 
    0x61, 0x74, 0x4d, 0x75, 0x6c, 0x00, 0x00, 0x00, 0x00, 0xf4, 0xff, 0xff, 
    0x1a, 0xf5, 0xff, 0xff, 0x04, 0x00, 0x00, 0x00, 0x80, 0x09, 0x00, 0x00, 
    0x60, 0x3c, 0x09, 0xbf, 0x00, 0xef, 0xed, 0xc0, 0x3c, 0x4f, 0xcd, 0xc0, 
    0x59, 0x08, 0xa7, 0xc0, 0x45, 0xe5, 0x69, 0x3e, 0x6c, 0x7f, 0x93, 0x3e, 
    0x3f, 0x0e, 0x55, 0x40, 0xa6, 0xe5, 0xae, 0x40, 0xc2, 0x82, 0xac, 0xc0, 
    0xa6, 0x47, 0x7c, 0xbe, 0xed, 0xf3, 0x91, 0xbe, 0x71, 0x8f, 0x7a, 0xbf, 
    0x07, 0x92, 0x85, 0xbf, 0xe5, 0x6b, 0x1d, 0xbf, 0xfd, 0xe7, 0x01, 0xbf, 
    0x13, 0x15, 0x64, 0xbf, 0x30, 0x96, 0xfd, 0xbc, 0xd4, 0x0a, 0x91, 0x40, 
    0xf6, 0x9c, 0x43, 0xc0, 0xb6, 0xc8, 0x47, 0xc0, 0x0c, 0x89, 0x46, 0xc0, 
    0x9f, 0x34, 0x3a, 0xc0, 0x01, 0x79, 0xff, 0x3f, 0x37, 0x06, 0x47, 0x40, 
    0x9a, 0x8a, 0xa1, 0xc0, 0x5f, 0xd4, 0x28, 0xc0, 0xd4, 0x2f, 0x06, 0xc0, 
    0xb8, 0x11, 0x4f, 0xc0, 0x07, 0xe8, 0x84, 0xc0, 0xa5, 0xba, 0x1b, 0xc0, 
    0x16, 0x4b, 0x97, 0xc0, 0x81, 0x7b, 0x48, 0xc0, 0xfb, 0x5c, 0xfb, 0x3e, 
    0x8d, 0xe6, 0x21, 0xc0, 0xc7, 0x1c, 0xe9, 0xbf, 0x1f, 0xbe, 0x7b, 0x3f, 
    0x4a, 0x8e, 0x3e, 0x3f, 0x85, 0x61, 0xfe, 0xc0, 0xcd, 0x26, 0x0a, 0xbf, 
    0x50, 0x66, 0x8a, 0xc0, 0x3f, 0xbd, 0x8a, 0xc0, 0x7d, 0x85, 0x8f, 0xc0, 
    0x7f, 0x89, 0x82, 0xc0, 0x9d, 0x2f, 0x17, 0xbb, 0x4b, 0x33, 0x77, 0x3e, 
    0x6c, 0xa5, 0x4f, 0xbf, 0xd9, 0x8b, 0x96, 0xc0, 0x92, 0xb2, 0x3b, 0xbf, 
    0x0b, 0xfd, 0x9b, 0xbf, 0x05, 0xeb, 0xa2, 0xbf, 0x9a, 0x9e, 0x23, 0xbf, 
    0x40, 0xcd, 0x19, 0xbf, 0x0c, 0x3e, 0x9a, 0x3e, 0x09, 0xd8, 0x29, 0xbf, 
    0xa4, 0xa8, 0x90, 0xbe, 0x7a, 0xea, 0x16, 0xbc, 0x36, 0x1a, 0xff, 0xbf, 
    0xc3, 0x38, 0x33, 0xc0, 0xcd, 0x68, 0x51, 0xbf, 0x9f, 0x78, 0x94, 0xbf, 
    0xa0, 0xc3, 0xb9, 0x3e, 0x4d, 0x36, 0x2d, 0x3f, 0x92, 0xa0, 0x9d, 0xc0, 
    0x12, 0xe1, 0xc9, 0xbe, 0x54, 0x5e, 0x23, 0xc0, 0xa3, 0x2a, 0x65, 0xc0, 
    0x28, 0xa3, 0x8e, 0xc0, 0x0d, 0x7c, 0x94, 0xc0, 0x83, 0x1d, 0x4d, 0xbf, 
    0x9d, 0x1c, 0x0d, 0xc0, 0x2e, 0x44, 0x23, 0xc0, 0xea, 0x15, 0xa0, 0xbf, 
    0x2a, 0x58, 0x6b, 0xbf, 0x3d, 0x7e, 0x56, 0x3e, 0x5a, 0xb5, 0xa4, 0x3e, 
    0xd4, 0xce, 0x95, 0xc0, 0xa2, 0x4f, 0x2e, 0x3e, 0x3e, 0x83, 0x63, 0x40, 
    0x21, 0xb2, 0x6a, 0x3f, 0xb0, 0x60, 0x82, 0xbf, 0xa9, 0xfd, 0x77, 0x3e, 
    0xf2, 0x76, 0x07, 0x3e, 0x19, 0x45, 0xac, 0xc0, 0x8f, 0x7f, 0xd1, 0xc0, 
    0x69, 0x75, 0xc2, 0xbd, 0xab, 0x00, 0x0e, 0x3f, 0xde, 0x12, 0xa7, 0xbf, 
    0x1b, 0x1d, 0x02, 0x3f, 0xc9, 0x47, 0xf4, 0x3e, 0x1e, 0xb3, 0x1f, 0xbf, 
    0xfa, 0x85, 0x1b, 0xbe, 0xd9, 0xf3, 0x14, 0xbe, 0x34, 0xa7, 0xe2, 0xbd, 
    0x43, 0x8b, 0xc6, 0xc0, 0x75, 0x68, 0xba, 0x3e, 0xac, 0xba, 0x47, 0x3f, 
    0xf5, 0x70, 0xf8, 0x3b, 0x5e, 0x0a, 0xfa, 0xbe, 0x3d, 0x25, 0xd9, 0xbf, 
    0x16, 0x1d, 0x93, 0xbf, 0xff, 0xe7, 0x57, 0xbf, 0xff, 0x38, 0xad, 0x3f, 
    0xe2, 0xbd, 0xd6, 0x3e, 0xd4, 0xb3, 0x29, 0x3f, 0x85, 0xc2, 0xb4, 0x3f, 
    0x9e, 0x81, 0x98, 0xbf, 0xd3, 0xe9, 0x80, 0xbf, 0xb7, 0x65, 0xac, 0xc0, 
    0xb7, 0xc6, 0x98, 0xc0, 0x6e, 0xc6, 0x24, 0xbf, 0xb2, 0xee, 0xfa, 0xbf, 
    0x14, 0x2a, 0xf4, 0xbf, 0x69, 0x99, 0xa7, 0xbf, 0xfd, 0x25, 0x28, 0x40, 
    0xb6, 0x83, 0xf2, 0x3c, 0x98, 0xd3, 0xe6, 0xbf, 0x56, 0x46, 0x8c, 0x3d, 
    0xf9, 0x0d, 0x32, 0x3f, 0x41, 0xeb, 0x1e, 0xc0, 0x0e, 0x67, 0xbf, 0xbf, 
    0x73, 0x00, 0x47, 0x40, 0x2b, 0xed, 0xa5, 0xbe, 0xa0, 0xbe, 0x00, 0xc0, 
    0x85, 0x93, 0x0e, 0xbd, 0xbb, 0xc0, 0x71, 0xbe, 0xe3, 0xc9, 0x9f, 0xbe, 
    0x64, 0xef, 0x98, 0x3d, 0x7e, 0x19, 0x1d, 0x3e, 0x5b, 0x71, 0x3a, 0xbe, 
    0xe6, 0xc5, 0x8f, 0xbe, 0xf4, 0x6d, 0x9e, 0xbd, 0xa2, 0x2d, 0x20, 0x3f, 
    0x13, 0xcb, 0xbe, 0x3d, 0x6e, 0x25, 0x00, 0x3e, 0x56, 0xfa, 0x1c, 0x3f, 
    0xb7, 0xd8, 0x8c, 0x3f, 0x54, 0xc6, 0x97, 0x3f, 0x71, 0xb2, 0x75, 0x3f, 
    0xf5, 0x25, 0xd6, 0xbe, 0x32, 0x70, 0x1b, 0x40, 0xdb, 0x46, 0xa6, 0x3f, 
    0xbe, 0x5f, 0x21, 0x3c, 0xc4, 0x39, 0x14, 0xbd, 0xcf, 0x78, 0x3d, 0xbf, 
    0xc5, 0x51, 0x36, 0x40, 0xd1, 0xb4, 0x49, 0x40, 0x1c, 0xd8, 0x61, 0x40, 
    0xa2, 0xf2, 0x0f, 0x40, 0xaa, 0x1b, 0x20, 0x40, 0xe8, 0x28, 0x04, 0x40, 
    0xff, 0xd0, 0x8d, 0x3f, 0xa6, 0x65, 0xd7, 0x3e, 0xe5, 0xfc, 0x25, 0xba, 
    0xe5, 0x5e, 0x84, 0xc0, 0x15, 0x26, 0x75, 0xbe, 0x47, 0x75, 0x10, 0x40, 
    0x24, 0x9c, 0xd8, 0x3d, 0xaf, 0xdb, 0xf0, 0xbf, 0xb6, 0x79, 0xba, 0x40, 
    0x24, 0xa4, 0xc2, 0xbe, 0x63, 0xd1, 0xe2, 0xbf, 0x34, 0x2b, 0xb5, 0x3d, 
    0x20, 0xd6, 0x3e, 0xbe, 0x00, 0x13, 0xea, 0x3d, 0xa0, 0x43, 0xd0, 0xbf, 
    0x24, 0x25, 0xa3, 0xbf, 0x6c, 0x0b, 0x88, 0xbf, 0xad, 0xb0, 0x0a, 0xbf, 
    0xa6, 0x7f, 0x08, 0x3e, 0xb1, 0xff, 0x08, 0xbe, 0x71, 0x6c, 0x73, 0x3e, 
    0xab, 0x9e, 0x5d, 0x3e, 0xde, 0xaa, 0xcb, 0xbe, 0xab, 0x43, 0x16, 0x3f, 
    0xfc, 0x70, 0x23, 0xbf, 0x7e, 0xbb, 0x88, 0xbf, 0x89, 0x6c, 0xf5, 0x3f, 
    0xe1, 0x9f, 0x82, 0xbf, 0x73, 0x22, 0x09, 0x3f, 0x98, 0x4d, 0x97, 0xbd, 
    0xdf, 0x11, 0xb5, 0x3e, 0xd8, 0x96, 0x47, 0x40, 0x50, 0xe6, 0xb7, 0x3f, 
    0x0c, 0x0f, 0xdc, 0x40, 0x34, 0xef, 0xb0, 0x40, 0x90, 0x0e, 0x55, 0x3f, 
    0x5c, 0x09, 0xcf, 0x3f, 0xa6, 0xdb, 0x33, 0xbf, 0xc7, 0x11, 0x60, 0xbf, 
    0xaf, 0x0b, 0x45, 0xbf, 0x9b, 0xe8, 0x7b, 0x3e, 0xf1, 0x6d, 0x78, 0x40, 
    0x02, 0xbe, 0xc4, 0x3f, 0xb3, 0xb1, 0x0d, 0x3f, 0x61, 0x3b, 0xd2, 0x3d, 
    0x9a, 0x07, 0x28, 0x3e, 0xbc, 0x0b, 0x67, 0xc0, 0x57, 0x5c, 0x44, 0xc0, 
    0x48, 0x1e, 0x64, 0x40, 0xba, 0x8b, 0xfe, 0x3e, 0x2d, 0x3e, 0x4a, 0x3e, 
    0x79, 0xe0, 0x3b, 0x3f, 0xef, 0xea, 0x8b, 0x3f, 0xc7, 0x0e, 0xda, 0x3e, 
    0x79, 0xc6, 0x00, 0xbe, 0xaa, 0x9a, 0xae, 0x3e, 0x28, 0x6d, 0x14, 0x3d, 
    0x68, 0xcb, 0x37, 0xc0, 0xd9, 0xed, 0x6a, 0x3e, 0x2c, 0xe3, 0xca, 0x3e, 
    0x48, 0x0e, 0xb8, 0x3e, 0xd8, 0xd9, 0xac, 0xbe, 0x94, 0x3f, 0x0c, 0x3e, 
    0xe1, 0x52, 0xac, 0xbe, 0x48, 0x60, 0x82, 0x3f, 0x0c, 0xe3, 0x93, 0xbd, 
    0x68, 0x13, 0x1f, 0x3f, 0x1a, 0xc4, 0x81, 0x3f, 0x9a, 0x46, 0xcf, 0x3f, 
    0x42, 0x3d, 0x5f, 0x3f, 0x09, 0x39, 0x1e, 0xc0, 0x38, 0x13, 0x8a, 0xc0, 
    0x3c, 0xad, 0x59, 0xc0, 0xa1, 0xa8, 0x56, 0xbf, 0x7b, 0xd9, 0x0e, 0xc0, 
    0x47, 0x43, 0x32, 0xbf, 0x4d, 0x2d, 0xec, 0xbe, 0x87, 0xa9, 0x2b, 0x40, 
    0x9c, 0x56, 0xf3, 0xbe, 0xde, 0xc2, 0x52, 0xbf, 0x57, 0x16, 0x6f, 0xbf, 
    0x31, 0x39, 0x96, 0xbf, 0x2c, 0xb1, 0x03, 0xbc, 0x0b, 0x72, 0x18, 0xbe, 
    0x1e, 0x40, 0x00, 0xbf, 0xb0, 0x25, 0xce, 0xbf, 0xbe, 0x05, 0x3e, 0xbf, 
    0xb2, 0xfb, 0xad, 0xbf, 0x1d, 0x92, 0x9a, 0x3e, 0x00, 0x9c, 0xfc, 0xbb, 
    0xee, 0xe6, 0x04, 0x3e, 0x5c, 0x7b, 0xbc, 0x3e, 0xb6, 0x2a, 0xa1, 0xbe, 
    0x3b, 0x9d, 0xd6, 0x3d, 0xeb, 0x54, 0x77, 0xbe, 0x4b, 0x95, 0xf7, 0xbe, 
    0x5d, 0x7f, 0x08, 0xbf, 0x87, 0xa5, 0x14, 0xbf, 0x1b, 0x4a, 0x17, 0xbf, 
    0x56, 0x27, 0x85, 0xbf, 0x39, 0x5a, 0x6e, 0xbf, 0x09, 0x09, 0x78, 0xbf, 
    0x18, 0x05, 0x77, 0xbf, 0xee, 0x6a, 0x0c, 0xbe, 0xff, 0x30, 0xae, 0xbe, 
    0x92, 0x07, 0xe5, 0xbe, 0xdf, 0xc8, 0x51, 0xbf, 0x2e, 0xf6, 0xf0, 0xbf, 
    0x7a, 0xb7, 0xb5, 0xbd, 0xf8, 0xf9, 0x8d, 0xbf, 0x4e, 0xf8, 0x88, 0xbf, 
    0xb8, 0xcf, 0xe0, 0xbe, 0x8c, 0xcf, 0x80, 0xbf, 0x99, 0x9c, 0x4d, 0xbf, 
    0xad, 0x85, 0x64, 0xbf, 0x26, 0x6a, 0x38, 0xbe, 0x11, 0x02, 0x8a, 0xbf, 
    0xff, 0xfa, 0x02, 0xc1, 0x3f, 0xd5, 0x02, 0xc1, 0x4e, 0x68, 0x0a, 0xc1, 
    0xf4, 0x47, 0xdd, 0xbe, 0x5b, 0xbb, 0x8f, 0x3d, 0x97, 0xae, 0x14, 0xbe, 
    0x0e, 0x55, 0xa1, 0xbf, 0x02, 0x02, 0x0b, 0xc1, 0x85, 0x7a, 0xab, 0xbf, 
    0x3d, 0xda, 0xaf, 0xbf, 0x17, 0x40, 0xdf, 0xbf, 0x2f, 0x46, 0xb8, 0xbf, 
    0x77, 0x09, 0xf7, 0xbe, 0x46, 0x48, 0xe9, 0xbd, 0x71, 0xb0, 0x84, 0xbf, 
    0x91, 0xe6, 0x38, 0xbe, 0x97, 0x7a, 0x89, 0xbf, 0xcc, 0x17, 0x89, 0xc0, 
    0x91, 0x69, 0x9b, 0xc0, 0x4f, 0xd2, 0x3a, 0xc0, 0xbd, 0x21, 0x36, 0xc0, 
    0xc9, 0x2a, 0xf4, 0xbe, 0x61, 0xea, 0x8e, 0xbf, 0x0d, 0x15, 0x01, 0xc1, 
    0x3e, 0x5e, 0x7a, 0xbf, 0x35, 0xc6, 0x8f, 0xc0, 0xc2, 0x4d, 0xcc, 0xc0, 
    0x4d, 0x78, 0xe8, 0xc0, 0x86, 0x19, 0xea, 0xc0, 0x11, 0x7e, 0x31, 0xc0, 
    0x44, 0xa0, 0x91, 0xc0, 0x01, 0x5e, 0x52, 0xc0, 0x72, 0x2c, 0x20, 0xc0, 
    0x47, 0x35, 0x13, 0xc0, 0x72, 0xd7, 0xe2, 0xbf, 0x12, 0xd4, 0x07, 0xc0, 
    0x55, 0x95, 0x0b, 0xc1, 0xcb, 0x22, 0x9f, 0x3e, 0x02, 0x04, 0x4d, 0x40, 
    0x70, 0x46, 0x0e, 0x40, 0xb4, 0x8b, 0xa9, 0x3f, 0x4b, 0xee, 0x99, 0x3d, 
    0x0f, 0x1d, 0xc5, 0x3d, 0x1f, 0x23, 0x52, 0xc0, 0xbe, 0x89, 0x51, 0xc0, 
    0xde, 0xbb, 0x30, 0x40, 0x10, 0x35, 0x36, 0x3f, 0xea, 0xe3, 0x2a, 0x3f, 
    0x10, 0xcb, 0xa6, 0x3f, 0xba, 0x2f, 0xaf, 0x3f, 0x78, 0xa0, 0x95, 0x3e, 
    0xa9, 0x05, 0x8b, 0x3d, 0x8c, 0x46, 0x41, 0x3f, 0x71, 0x21, 0x7c, 0xbe, 
    0x5e, 0xae, 0x48, 0xc0, 0x82, 0x3c, 0xbe, 0xbd, 0x67, 0x8f, 0xd3, 0x3d, 
    0x85, 0xec, 0x94, 0x3f, 0xb6, 0xfe, 0x03, 0x3f, 0x64, 0x85, 0xd3, 0xbf, 
    0xb3, 0x5c, 0xf1, 0xbf, 0x39, 0x96, 0x94, 0x3f, 0x79, 0x00, 0xd8, 0x3e, 
    0x81, 0x18, 0x8e, 0x3f, 0xc8, 0x9d, 0x50, 0x3f, 0xb0, 0x27, 0x16, 0x40, 
    0x38, 0x5b, 0x0c, 0x3f, 0x2b, 0x6e, 0x75, 0xbf, 0x9b, 0xde, 0x5d, 0xc0, 
    0xaf, 0xa6, 0xd7, 0xbf, 0x6d, 0xc9, 0x6a, 0x3e, 0x59, 0x41, 0x57, 0xbe, 
    0x8f, 0x20, 0x1f, 0xc0, 0x62, 0xa5, 0xc5, 0xbf, 0x0a, 0xa1, 0x50, 0x40, 
    0x25, 0xc8, 0x9c, 0xbe, 0xf6, 0x11, 0x32, 0x3e, 0x32, 0xe4, 0x79, 0xbe, 
    0xf6, 0x47, 0x4f, 0x3e, 0x19, 0xe6, 0x1f, 0xbe, 0xa1, 0x85, 0x01, 0xbd, 
    0x9e, 0x73, 0x8e, 0xbe, 0xfb, 0xa0, 0xad, 0xbd, 0x31, 0x7e, 0xb9, 0xbe, 
    0xbc, 0xc8, 0x57, 0xbe, 0xae, 0xa0, 0xdd, 0xbc, 0x98, 0x6f, 0x33, 0xbd, 
    0x9a, 0x8a, 0x93, 0x3d, 0xc0, 0x0f, 0x5d, 0x3e, 0x43, 0x7d, 0x0f, 0x3d, 
    0x17, 0x3f, 0x8c, 0x3e, 0x70, 0x32, 0x18, 0x3e, 0x80, 0xfd, 0x34, 0xbb, 
    0x62, 0xaa, 0x99, 0xbe, 0x4c, 0x19, 0xe5, 0xbd, 0x24, 0x6f, 0xb8, 0xbd, 
    0x18, 0x0f, 0x51, 0x3c, 0x5a, 0xa0, 0x4d, 0x3e, 0x5b, 0x95, 0x69, 0xbe, 
    0x01, 0x03, 0x99, 0xbe, 0x33, 0xe9, 0xf1, 0xbc, 0x5d, 0x46, 0xe1, 0x3d, 
    0xe5, 0x22, 0xcb, 0xbe, 0xd0, 0x6a, 0xca, 0xbe, 0x3f, 0xc7, 0xa2, 0xbd, 
    0xab, 0xc9, 0xc0, 0x3c, 0x58, 0x81, 0x8b, 0xbd, 0x9c, 0xd7, 0x8a, 0xbc, 
    0x76, 0xd3, 0xb7, 0xbe, 0xf6, 0xf9, 0xaa, 0xbe, 0x6a, 0x21, 0x39, 0x3e, 
    0x4b, 0x66, 0x7a, 0xbe, 0x7f, 0x15, 0x49, 0x3e, 0x09, 0xe2, 0xc9, 0xbf, 
    0x40, 0xa1, 0x03, 0xc1, 0x20, 0x0b, 0x04, 0xc1, 0x73, 0xcc, 0x09, 0xc1, 
    0x38, 0x8c, 0x81, 0x3d, 0x14, 0x17, 0x27, 0x3e, 0x94, 0x44, 0x9d, 0xbe, 
    0x1b, 0x0b, 0xda, 0xbf, 0x0d, 0x74, 0x08, 0xc1, 0x22, 0xde, 0x8d, 0xbf, 
    0x43, 0xb6, 0x08, 0xc0, 0x81, 0xb8, 0xeb, 0xbf, 0xf6, 0x15, 0xb7, 0xbf, 
    0xf3, 0xd5, 0xa0, 0xbf, 0x09, 0x6b, 0x23, 0x3f, 0xbe, 0xbe, 0xd5, 0xbf, 
    0x65, 0xa7, 0xe0, 0x3d, 0x47, 0x73, 0x3a, 0xc0, 0x19, 0x4e, 0xaa, 0xc0, 
    0x20, 0x9a, 0xc3, 0xc0, 0x21, 0x74, 0x4d, 0xc0, 0x56, 0x86, 0x3d, 0xc0, 
    0x0d, 0x3f, 0xf3, 0x3e, 0x73, 0xa5, 0x69, 0x3f, 0xd1, 0xe4, 0x0b, 0xc1, 
    0xe2, 0xac, 0x8a, 0xbf, 0xfd, 0x74, 0x62, 0xc0, 0x8f, 0x37, 0xb1, 0xc0, 
    0xbb, 0x56, 0xf5, 0xc0, 0x0d, 0x86, 0xf3, 0xc0, 0x21, 0x45, 0x52, 0xc0, 
    0x5b, 0x06, 0xa7, 0xc0, 0x39, 0xb3, 0x94, 0xc0, 0x3a, 0x1e, 0x3a, 0xc0, 
    0x21, 0x66, 0x23, 0xc0, 0x8c, 0xde, 0x25, 0xbf, 0x47, 0xa5, 0x95, 0xbf, 
    0x9c, 0x66, 0x18, 0xc1, 0x05, 0x83, 0x0e, 0xbf, 0xc7, 0x9f, 0x13, 0xc1, 
    0x25, 0x00, 0x08, 0xc1, 0xa9, 0x5c, 0x17, 0xc1, 0x6a, 0x77, 0x57, 0x3e, 
    0x19, 0x31, 0x45, 0x3e, 0x39, 0x45, 0x01, 0x3f, 0x00, 0x75, 0x08, 0x40, 
    0x9e, 0x82, 0x06, 0xc1, 0xef, 0xbe, 0xb2, 0xbf, 0x87, 0xf1, 0xb2, 0xbf, 
    0x69, 0x0d, 0xe6, 0xbf, 0x83, 0xb8, 0xc3, 0xbf, 0xe8, 0xb0, 0x2c, 0xbf, 
    0x71, 0x7e, 0x87, 0x3e, 0xd2, 0x0d, 0xad, 0xbf, 0x8c, 0x2c, 0x4d, 0xbd, 
    0xd1, 0xd5, 0x1d, 0x3f, 0x5c, 0xfd, 0xae, 0xc0, 0x6f, 0xa4, 0xd1, 0xc0, 
    0x07, 0x82, 0x4c, 0xc0, 0x15, 0xeb, 0x40, 0xc0, 0xa7, 0x18, 0xf9, 0x3f, 
    0x5e, 0xa3, 0x1c, 0x40, 0x7b, 0x0b, 0x0d, 0xc1, 0x94, 0x74, 0x29, 0xc0, 
    0xbd, 0xdf, 0x89, 0xc0, 0x58, 0xa7, 0xc0, 0xc0, 0xb9, 0x42, 0xfc, 0xc0, 
    0x15, 0xdd, 0xe2, 0xc0, 0xe1, 0x23, 0x92, 0xc0, 0x4c, 0x53, 0xd4, 0xc0, 
    0xd8, 0x30, 0x8c, 0xc0, 0xa1, 0x58, 0x3d, 0xc0, 0xd9, 0x6c, 0x16, 0xc0, 
    0x9d, 0xfe, 0x77, 0x3f, 0x7a, 0xa5, 0x91, 0x3f, 0x95, 0xac, 0x2a, 0xc1, 
    0x01, 0xea, 0x38, 0x3f, 0x33, 0x02, 0x71, 0x40, 0x56, 0x37, 0x96, 0x40, 
    0x60, 0x8b, 0xaa, 0x40, 0xd1, 0x27, 0x96, 0xbb, 0xf4, 0x67, 0x34, 0x3d, 
    0xff, 0xba, 0x47, 0x40, 0xdd, 0x3a, 0x75, 0x40, 0xab, 0xb0, 0xe0, 0x40, 
    0xb1, 0xc9, 0x84, 0x3f, 0x34, 0xa5, 0xca, 0x3f, 0x10, 0x4b, 0xa8, 0x3f, 
    0x92, 0x45, 0x9e, 0x3f, 0x1a, 0xa6, 0x85, 0x3f, 0x89, 0xc9, 0x2b, 0xbf, 
    0x65, 0x1b, 0x81, 0x3f, 0x14, 0x37, 0x35, 0x3d, 0xfe, 0xcd, 0x8c, 0x40, 
    0xe9, 0x34, 0x56, 0x3f, 0x37, 0xaa, 0xa5, 0x3f, 0x8e, 0x4c, 0x03, 0x40, 
    0xb4, 0xe4, 0x0d, 0x40, 0x5c, 0xc5, 0x79, 0xbf, 0x81, 0x75, 0x99, 0xbf, 
    0xc5, 0x26, 0xc0, 0x40, 0xc9, 0x60, 0xc9, 0xbf, 0x56, 0x12, 0x02, 0x40, 
    0xee, 0x2b, 0x46, 0x40, 0x00, 0x9f, 0x8f, 0x40, 0xb9, 0xaf, 0xa9, 0x40, 
    0x71, 0x48, 0xa1, 0x3f, 0xff, 0xf9, 0x8b, 0x40, 0xda, 0x4d, 0x3e, 0x40, 
    0xcf, 0xc8, 0x05, 0x40, 0x43, 0x63, 0xf6, 0x3f, 0x73, 0x60, 0x43, 0x3f, 
    0x66, 0x02, 0x8c, 0x3d, 0x15, 0x11, 0xa4, 0x40, 0x64, 0x05, 0x38, 0xbf, 
    0xd1, 0x8c, 0xac, 0xc0, 0x6e, 0x89, 0xaa, 0xc0, 0xee, 0x3e, 0xbb, 0xc0, 
    0xb7, 0x83, 0x9c, 0x3c, 0xdc, 0xa2, 0xd3, 0x3d, 0x74, 0x56, 0xbd, 0xbf, 
    0x67, 0x6c, 0x18, 0xc0, 0xce, 0x9d, 0xb5, 0xc0, 0xdd, 0x8b, 0xc6, 0xbf, 
    0x2f, 0x89, 0xd6, 0xbf, 0xae, 0x45, 0xc6, 0xbf, 0x79, 0x45, 0x8f, 0xbf, 
    0xdf, 0xf6, 0x74, 0xbf, 0x8c, 0x32, 0x0a, 0x3f, 0xb3, 0x60, 0x42, 0xbf, 
    0x2f, 0x06, 0xf4, 0x3d, 0x03, 0xef, 0x7b, 0xc0, 0x87, 0x82, 0x24, 0xc0, 
    0x1d, 0x8d, 0x4d, 0xc0, 0xa3, 0x5c, 0x35, 0xc0, 0xb4, 0x67, 0x2f, 0xc0, 
    0xdb, 0x05, 0x08, 0xbe, 0x70, 0x30, 0xcb, 0x3e, 0x0c, 0xd6, 0xc5, 0xc0, 
    0xdf, 0xc2, 0xde, 0x3e, 0x4b, 0x10, 0x16, 0xc0, 0xf9, 0x94, 0x83, 0xc0, 
    0x79, 0x5e, 0xbe, 0xc0, 0x4a, 0x66, 0xbe, 0xc0, 0x1f, 0x70, 0x00, 0xc0, 
    0xe8, 0xf8, 0x64, 0xc0, 0xd9, 0x7e, 0x9c, 0xc0, 0x8e, 0xe0, 0xb8, 0xbf, 
    0xb6, 0x0d, 0xf1, 0xbf, 0xca, 0x26, 0x43, 0xbf, 0x58, 0x1f, 0xa0, 0xbf, 
    0x41, 0x8f, 0xb2, 0xc0, 0xbc, 0xc8, 0x4b, 0x3d, 0xa6, 0xa7, 0xa6, 0xbf, 
    0xf0, 0x61, 0xdd, 0xbd, 0xb8, 0xaf, 0xd9, 0x3f, 0x43, 0xa7, 0xe7, 0xbc, 
    0x5f, 0xc1, 0x90, 0xbe, 0xe0, 0x40, 0x26, 0x40, 0xb1, 0x5e, 0x8d, 0x3f, 
    0xe0, 0x2f, 0x08, 0x40, 0xe2, 0x25, 0xb1, 0xbe, 0x36, 0x35, 0x05, 0xbe, 
    0x8b, 0x0c, 0x41, 0xbe, 0xf6, 0xd5, 0x8e, 0xbf, 0x39, 0x83, 0xff, 0xbc, 
    0x47, 0xea, 0x8d, 0xbe, 0xbb, 0x04, 0xe1, 0x3d, 0xdb, 0x3b, 0x6d, 0xbe, 
    0x4a, 0xa4, 0xe3, 0x3f, 0x76, 0xea, 0x23, 0xbe, 0x08, 0xc7, 0x9a, 0xbe, 
    0xc8, 0xb6, 0x15, 0xbf, 0x8a, 0xfb, 0xb9, 0x3d, 0xec, 0xed, 0x8a, 0xbf, 
    0xaf, 0xec, 0x51, 0xbf, 0x03, 0x3a, 0x94, 0x3f, 0x5d, 0xd3, 0x15, 0xbf, 
    0x7b, 0x51, 0x42, 0xbf, 0xe2, 0x84, 0x87, 0xbe, 0x74, 0xc5, 0xd5, 0x3e, 
    0x2e, 0x56, 0x07, 0x40, 0xc0, 0x53, 0x2f, 0xbf, 0x81, 0xc7, 0x92, 0x40, 
    0xcd, 0x0a, 0x47, 0x40, 0x3e, 0xef, 0x82, 0x3c, 0x5c, 0x99, 0x47, 0x3f, 
    0xd5, 0x99, 0x37, 0xbf, 0x60, 0x92, 0x25, 0xbf, 0x43, 0xb6, 0xe2, 0xbe, 
    0x59, 0x48, 0x0f, 0x3c, 0x35, 0xb5, 0x36, 0xc0, 0xb4, 0xeb, 0x02, 0xc0, 
    0xc4, 0x38, 0x48, 0xc0, 0x1e, 0x45, 0xa7, 0xba, 0x8f, 0x8c, 0x96, 0xbe, 
    0x0a, 0x2c, 0xff, 0xbe, 0x87, 0x01, 0x4d, 0xbf, 0xcd, 0x5d, 0x45, 0xc0, 
    0x38, 0x3e, 0x7a, 0xbf, 0x2d, 0xa5, 0xa3, 0x3e, 0x8c, 0xe0, 0x91, 0xbd, 
    0x01, 0x73, 0x11, 0xbf, 0x6a, 0x25, 0x19, 0xbf, 0xca, 0xb1, 0x0b, 0x3e, 
    0x05, 0x9e, 0xaa, 0xbc, 0x70, 0xb9, 0x3a, 0xbe, 0x92, 0x9e, 0x88, 0xbf, 
    0x98, 0xef, 0xcd, 0xbf, 0xdd, 0xee, 0xcc, 0xbf, 0x0d, 0x65, 0x04, 0xbf, 
    0x57, 0x4c, 0x86, 0xbe, 0x5f, 0x5b, 0x01, 0xbf, 0xfa, 0x4a, 0xef, 0xbe, 
    0x4a, 0xfe, 0x3c, 0xc0, 0x14, 0x80, 0x51, 0xbf, 0x51, 0x06, 0x93, 0xbf, 
    0x50, 0xfb, 0x29, 0xc0, 0xe7, 0xbb, 0x4a, 0xc0, 0x82, 0xec, 0x34, 0xc0, 
    0x0c, 0x01, 0x0d, 0xbf, 0x06, 0xb4, 0xcd, 0xbf, 0x86, 0x24, 0xcb, 0xbf, 
    0x45, 0xbf, 0xb8, 0xbe, 0xcc, 0xbb, 0x2b, 0xbe, 0x4a, 0x83, 0x80, 0xbf, 
    0x36, 0xba, 0x0a, 0xbf, 0xd2, 0x2c, 0x3d, 0xc0, 0x52, 0xfe, 0xff, 0xff, 
    0x10, 0x00, 0x00, 0x00, 0x05, 0x00, 0x00, 0x00, 0x14, 0x00, 0x00, 0x00, 
    0x30, 0x00, 0x00, 0x00, 0x02, 0x00, 0x00, 0x00, 0x10, 0x00, 0x00, 0x00, 
    0x26, 0x00, 0x00, 0x00, 0x19, 0x00, 0x00, 0x00, 0x73, 0x65, 0x71, 0x75, 
    0x65, 0x6e, 0x74, 0x69, 0x61, 0x6c, 0x2f, 0x64, 0x65, 0x6e, 0x73, 0x65, 
    0x5f, 0x34, 0x2f, 0x4d, 0x61, 0x74, 0x4d, 0x75, 0x6c, 0x00, 0x00, 0x00, 
    0xd0, 0xfd, 0xff, 0xff, 0xea, 0xfe, 0xff, 0xff, 0x04, 0x00, 0x00, 0x00, 
    0x08, 0x00, 0x00, 0x00, 0x5c, 0xc3, 0x8a, 0xc0, 0x5a, 0xc3, 0x8a, 0x40, 
    0xaa, 0xfe, 0xff, 0xff, 0x10, 0x00, 0x00, 0x00, 0x04, 0x00, 0x00, 0x00, 
    0x10, 0x00, 0x00, 0x00, 0x44, 0x00, 0x00, 0x00, 0x01, 0x00, 0x00, 0x00, 
    0x02, 0x00, 0x00, 0x00, 0x32, 0x00, 0x00, 0x00, 0x73, 0x65, 0x71, 0x75, 
    0x65, 0x6e, 0x74, 0x69, 0x61, 0x6c, 0x2f, 0x64, 0x65, 0x6e, 0x73, 0x65, 
    0x5f, 0x36, 0x2f, 0x42, 0x69, 0x61, 0x73, 0x41, 0x64, 0x64, 0x2f, 0x52, 
    0x65, 0x61, 0x64, 0x56, 0x61, 0x72, 0x69, 0x61, 0x62, 0x6c, 0x65, 0x4f, 
    0x70, 0x2f, 0x72, 0x65, 0x73, 0x6f, 0x75, 0x72, 0x63, 0x65, 0x00, 0x00, 
    0x3c, 0xfe, 0xff, 0xff, 0x56, 0xff, 0xff, 0xff, 0x04, 0x00, 0x00, 0x00, 
    0x40, 0x00, 0x00, 0x00, 0xbb, 0x22, 0x20, 0x40, 0x8b, 0x53, 0x57, 0xbe, 
    0x88, 0x71, 0x94, 0xc0, 0x2b, 0x6b, 0x1b, 0x40, 0xac, 0xd5, 0x73, 0xbc, 
    0xb4, 0xaf, 0x12, 0x40, 0xfc, 0x7e, 0x76, 0x40, 0xfc, 0xe0, 0x28, 0x40, 
    0x93, 0x6f, 0x3b, 0xc0, 0x3e, 0x3b, 0x9f, 0x3f, 0x14, 0x1f, 0x88, 0x3f, 
    0x39, 0x5b, 0x72, 0xbe, 0xf5, 0x89, 0xa5, 0x3f, 0xf8, 0x5d, 0x0a, 0xbf, 
    0x59, 0x65, 0x5d, 0xbd, 0xb2, 0x7a, 0x26, 0xc0, 0x4e, 0xff, 0xff, 0xff, 
    0x10, 0x00, 0x00, 0x00, 0x03, 0x00, 0x00, 0x00, 0x10, 0x00, 0x00, 0x00, 
    0x48, 0x00, 0x00, 0x00, 0x01, 0x00, 0x00, 0x00, 0x10, 0x00, 0x00, 0x00, 
    0x32, 0x00, 0x00, 0x00, 0x73, 0x65, 0x71, 0x75, 0x65, 0x6e, 0x74, 0x69, 
    0x61, 0x6c, 0x2f, 0x64, 0x65, 0x6e, 0x73, 0x65, 0x5f, 0x35, 0x2f, 0x42, 
    0x69, 0x61, 0x73, 0x41, 0x64, 0x64, 0x2f, 0x52, 0x65, 0x61, 0x64, 0x56, 
    0x61, 0x72, 0x69, 0x61, 0x62, 0x6c, 0x65, 0x4f, 0x70, 0x2f, 0x72, 0x65, 
    0x73, 0x6f, 0x75, 0x72, 0x63, 0x65, 0x00, 0x00, 0x04, 0x00, 0x06, 0x00, 
    0x04, 0x00, 0x00, 0x00, 0x00, 0x00, 0x06, 0x00, 0x08, 0x00, 0x04, 0x00, 
    0x06, 0x00, 0x00, 0x00, 0x04, 0x00, 0x00, 0x00, 0x40, 0x00, 0x00, 0x00, 
    0x83, 0x5e, 0xa2, 0xc0, 0xbf, 0x38, 0x92, 0xc0, 0xcd, 0xf1, 0x1b, 0xbf, 
    0x58, 0x09, 0x2a, 0x3f, 0x68, 0x50, 0xb9, 0x3f, 0xe2, 0x41, 0x24, 0x3f, 
    0x78, 0x09, 0x85, 0xbf, 0x6e, 0x24, 0x06, 0xc1, 0xf7, 0x27, 0x8e, 0x3f, 
    0xe9, 0xc7, 0xc7, 0xbd, 0x66, 0x23, 0x07, 0xc1, 0xc6, 0x86, 0x10, 0xc1, 
    0xc9, 0x20, 0xaa, 0x40, 0xc6, 0xab, 0xbb, 0xc0, 0x37, 0x1a, 0x96, 0x3f, 
    0x69, 0x1e, 0x41, 0xc0, 0x00, 0x00, 0x0e, 0x00, 0x14, 0x00, 0x04, 0x00, 
    0x00, 0x00, 0x08, 0x00, 0x0c, 0x00, 0x10, 0x00, 0x0e, 0x00, 0x00, 0x00, 
    0x10, 0x00, 0x00, 0x00, 0x02, 0x00, 0x00, 0x00, 0x10, 0x00, 0x00, 0x00, 
    0x44, 0x00, 0x00, 0x00, 0x01, 0x00, 0x00, 0x00, 0x10, 0x00, 0x00, 0x00, 
    0x32, 0x00, 0x00, 0x00, 0x73, 0x65, 0x71, 0x75, 0x65, 0x6e, 0x74, 0x69, 
    0x61, 0x6c, 0x2f, 0x64, 0x65, 0x6e, 0x73, 0x65, 0x5f, 0x34, 0x2f, 0x42, 
    0x69, 0x61, 0x73, 0x41, 0x64, 0x64, 0x2f, 0x52, 0x65, 0x61, 0x64, 0x56, 
    0x61, 0x72, 0x69, 0x61, 0x62, 0x6c, 0x65, 0x4f, 0x70, 0x2f, 0x72, 0x65, 
    0x73, 0x6f, 0x75, 0x72, 0x63, 0x65, 0x00, 0x00, 0xa0, 0xff, 0xff, 0xff, 
    0x14, 0x00, 0x18, 0x00, 0x04, 0x00, 0x00, 0x00, 0x08, 0x00, 0x0c, 0x00, 
    0x10, 0x00, 0x00, 0x00, 0x00, 0x00, 0x14, 0x00, 0x14, 0x00, 0x00, 0x00, 
    0x14, 0x00, 0x00, 0x00, 0x01, 0x00, 0x00, 0x00, 0x24, 0x00, 0x00, 0x00, 
    0x34, 0x00, 0x00, 0x00, 0x10, 0x00, 0x00, 0x00, 0x02, 0x00, 0x00, 0x00, 
    0x01, 0x00, 0x00, 0x00, 0x26, 0x00, 0x00, 0x00, 0x02, 0x00, 0x00, 0x00, 
    0xff, 0xff, 0xff, 0xff, 0x26, 0x00, 0x00, 0x00, 0x0d, 0x00, 0x00, 0x00, 
    0x64, 0x65, 0x6e, 0x73, 0x65, 0x5f, 0x34, 0x5f, 0x69, 0x6e, 0x70, 0x75, 
    0x74, 0x00, 0x00, 0x00, 0xfc, 0xff, 0xff, 0xff, 0x04, 0x00, 0x04, 0x00, 
    0x04, 0x00, 0x00, 0x00
};

#endif //NETWORK_MODEL_H